{
  "version": "1.0",
  "truncation": null,
  "padding": null,
  "added_tokens": [
    {
      "id": 0,
      "content": "[PAD]",
      "single_word": false,
      "lstrip": false,
      "rstrip": false,
      "normalized": false,
      "special": true
    },
    {
      "id": 1,
      "content": "[UNK]",
      "single_word": false,
      "lstrip": false,
      "rstrip": false,
      "normalized": false,
      "special": true
    },
    {
      "id": 2,
      "content": "[BOS]",
      "single_word": false,
      "lstrip": false,
      "rstrip": false,
      "normalized": false,
      "special": true
    },
    {
      "id": 3,
      "content": "[EOS]",
      "single_word": false,
      "lstrip": false,
      "rstrip": false,
      "normalized": false,
      "special": true
    }
  ],
  "normalizer": null,
  "pre_tokenizer": {
    "type": "Whitespace"
  },
  "post_processor": null,
  "decoder": null,
  "model": {
    "type": "BPE",
    "dropout": null,
    "unk_token": "[UNK]",
    "continuing_subword_prefix": null,
    "end_of_word_suffix": null,
    "fuse_unk": false,
    "byte_fallback": false,
    "ignore_merges": false,
    "vocab": {
      "[PAD]": 0,
      "[UNK]": 1,
      "[BOS]": 2,
      "[EOS]": 3,
      "!": 4,
      "\"": 5,
      "#": 6,
      "$": 7,
      "%": 8,
      "&": 9,
      "'": 10,
      "(": 11,
      ")": 12,
      "*": 13,
      "+": 14,
      ",": 15,
      "-": 16,
      ".": 17,
      "/": 18,
      "0": 19,
      "1": 20,
      "2": 21,
      "3": 22,
      "4": 23,
      "5": 24,
      "6": 25,
      "7": 26,
      "8": 27,
      "9": 28,
      ":": 29,
      ";": 30,
      "<": 31,
      "=": 32,
      ">": 33,
      "?": 34,
      "A": 35,
      "B": 36,
      "C": 37,
      "D": 38,
      "E": 39,
      "F": 40,
      "G": 41,
      "H": 42,
      "I": 43,
      "J": 44,
      "K": 45,
      "L": 46,
      "M": 47,
      "N": 48,
      "O": 49,
      "P": 50,
      "Q": 51,
      "R": 52,
      "S": 53,
      "T": 54,
      "U": 55,
      "V": 56,
      "W": 57,
      "X": 58,
      "Y": 59,
      "Z": 60,
      "[": 61,
      "]": 62,
      "^": 63,
      "_": 64,
      "a": 65,
      "b": 66,
      "c": 67,
      "d": 68,
      "e": 69,
      "f": 70,
      "g": 71,
      "h": 72,
      "i": 73,
      "j": 74,
      "k": 75,
      "l": 76,
      "m": 77,
      "n": 78,
      "o": 79,
      "p": 80,
      "q": 81,
      "r": 82,
      "s": 83,
      "t": 84,
      "u": 85,
      "v": 86,
      "w": 87,
      "x": 88,
      "y": 89,
      "z": 90,
      "{": 91,
      "|": 92,
      "}": 93,
      "~": 94,
      "£": 95,
      "°": 96,
      "·": 97,
      "À": 98,
      "Á": 99,
      "Æ": 100,
      "Ç": 101,
      "É": 102,
      "Ê": 103,
      "Í": 104,
      "Ô": 105,
      "Ú": 106,
      "à": 107,
      "á": 108,
      "â": 109,
      "ä": 110,
      "å": 111,
      "æ": 112,
      "ç": 113,
      "è": 114,
      "é": 115,
      "ê": 116,
      "ë": 117,
      "í": 118,
      "î": 119,
      "ï": 120,
      "ñ": 121,
      "ò": 122,
      "ó": 123,
      "ô": 124,
      "ö": 125,
      "ù": 126,
      "ú": 127,
      "û": 128,
      "ü": 129,
      "Œ": 130,
      "œ": 131,
      "́": 132,
      "Β": 133,
      "Ε": 134,
      "Κ": 135,
      "Μ": 136,
      "Ο": 137,
      "Τ": 138,
      "ά": 139,
      "έ": 140,
      "ή": 141,
      "ί": 142,
      "α": 143,
      "β": 144,
      "δ": 145,
      "ε": 146,
      "ζ": 147,
      "η": 148,
      "θ": 149,
      "ι": 150,
      "κ": 151,
      "λ": 152,
      "μ": 153,
      "ν": 154,
      "ο": 155,
      "π": 156,
      "ρ": 157,
      "ς": 158,
      "σ": 159,
      "τ": 160,
      "υ": 161,
      "φ": 162,
      "χ": 163,
      "ό": 164,
      "ύ": 165,
      "ה": 166,
      "ו": 167,
      "ח": 168,
      "ט": 169,
      "ע": 170,
      "ץ": 171,
      "آ": 172,
      "ا": 173,
      "س": 174,
      "ص": 175,
      "ل": 176,
      "م": 177,
      "و": 178,
      "َ": 179,
      "ṙ": 180,
      "ἀ": 181,
      "ἄ": 182,
      "ἆ": 183,
      "ἑ": 184,
      "ἰ": 185,
      "ἴ": 186,
      "ἵ": 187,
      "ὡ": 188,
      "ὴ": 189,
      "ὶ": 190,
      "ὸ": 191,
      "ὼ": 192,
      "ῖ": 193,
      "ῤ": 194,
      "ῥ": 195,
      "ῦ": 196,
      "‎": 197,
      "‏": 198,
      "—": 199,
      "‘": 200,
      "’": 201,
      "“": 202,
      "”": 203,
      "′": 204,
      "⁄": 205,
      "→": 206,
      "✿": 207,
      "❌": 208,
      "th": 209,
      "the": 210,
      "in": 211,
      "an": 212,
      "er": 213,
      "ou": 214,
      "re": 215,
      "ed": 216,
      "on": 217,
      "en": 218,
      "and": 219,
      "at": 220,
      "to": 221,
      "is": 222,
      "as": 223,
      "of": 224,
      "ing": 225,
      "or": 226,
      "he": 227,
      "ar": 228,
      "ll": 229,
      "es": 230,
      "it": 231,
      "st": 232,
      "le": 233,
      "ha": 234,
      "se": 235,
      "me": 236,
      "wh": 237,
      "be": 238,
      "ow": 239,
      "ch": 240,
      "gh": 241,
      "wi": 242,
      "ro": 243,
      "id": 244,
      "ve": 245,
      "ce": 246,
      "ld": 247,
      "ly": 248,
      "al": 249,
      "was": 250,
      "that": 251,
      "no": 252,
      "ut": 253,
      "his": 254,
      "ir": 255,
      "for": 256,
      "ent": 257,
      "im": 258,
      "ad": 259,
      "with": 260,
      "li": 261,
      "ay": 262,
      "ght": 263,
      "ver": 264,
      "so": 265,
      "you": 266,
      "all": 267,
      "her": 268,
      "un": 269,
      "ri": 270,
      "ion": 271,
      "sa": 272,
      "ter": 273,
      "lo": 274,
      "ur": 275,
      "ra": 276,
      "co": 277,
      "we": 278,
      "had": 279,
      "my": 280,
      "not": 281,
      "ke": 282,
      "us": 283,
      "de": 284,
      "ould": 285,
      "ther": 286,
      "nd": 287,
      "mo": 288,
      "ain": 289,
      "ck": 290,
      "ere": 291,
      "him": 292,
      "up": 293,
      "ne": 294,
      "fe": 295,
      "ge": 296,
      "The": 297,
      "ti": 298,
      "sh": 299,
      "out": 300,
      "one": 301,
      "od": 302,
      "ab": 303,
      "pe": 304,
      "our": 305,
      "whi": 306,
      "but": 307,
      "am": 308,
      "ct": 309,
      "ess": 310,
      "su": 311,
      "man": 312,
      "are": 313,
      "by": 314,
      "rom": 315,
      "po": 316,
      "have": 317,
      "con": 318,
      "she": 319,
      "ard": 320,
      "ight": 321,
      "go": 322,
      "il": 323,
      "said": 324,
      "now": 325,
      "which": 326,
      "from": 327,
      "ast": 328,
      "la": 329,
      "et": 330,
      "fo": 331,
      "qu": 332,
      "ca": 333,
      "this": 334,
      "if": 335,
      "est": 336,
      "do": 337,
      "they": 338,
      "who": 339,
      "res": 340,
      "were": 341,
      "ul": 342,
      "ind": 343,
      "thou": 344,
      "ag": 345,
      "ound": 346,
      "per": 347,
      ".”": 348,
      "ex": 349,
      "end": 350,
      "ok": 351,
      "ous": 352,
      "own": 353,
      "sel": 354,
      "ant": 355,
      "ong": 356,
      "fa": 357,
      "art": 358,
      "ust": 359,
      "Th": 360,
      "te": 361,
      "them": 362,
      "see": 363,
      "wor": 364,
      "ill": 365,
      "com": 366,
      "there": 367,
      "ho": 368,
      "He": 369,
      "bo": 370,
      "thing": 371,
      "ic": 372,
      "--": 373,
      "their": 374,
      "way": 375,
      "some": 376,
      "ate": 377,
      "would": 378,
      "And": 379,
      "ry": 380,
      "der": 381,
      "ie": 382,
      "wo": 383,
      "when": 384,
      "other": 385,
      "ven": 386,
      "ation": 387,
      "very": 388,
      ",”": 389,
      "ak": 390,
      "ap": 391,
      "self": 392,
      "ist": 393,
      "red": 394,
      "ac": 395,
      "gre": 396,
      "ine": 397,
      "will": 398,
      "ru": 399,
      "what": 400,
      "ers": 401,
      "But": 402,
      "fore": 403,
      "ment": 404,
      "here": 405,
      "sp": 406,
      "could": 407,
      ".\"": 408,
      "ish": 409,
      "like": 410,
      "Wh": 411,
      "ide": 412,
      "more": 413,
      "pro": 414,
      "af": 415,
      "itt": 416,
      "rou": 417,
      "el": 418,
      "ep": 419,
      "op": 420,
      "been": 421,
      "upon": 422,
      "know": 423,
      "your": 424,
      "ran": 425,
      "It": 426,
      "any": 427,
      "ass": 428,
      "ig": 429,
      "oun": 430,
      "ake": 431,
      "then": 432,
      "can": 433,
      "pl": 434,
      "urn": 435,
      "sha": 436,
      "ure": 437,
      "um": 438,
      "than": 439,
      "into": 440,
      "om": 441,
      "ved": 442,
      "ach": 443,
      "ive": 444,
      "over": 445,
      "ort": 446,
      "ence": 447,
      "ity": 448,
      "ble": 449,
      "look": 450,
      "hand": 451,
      "med": 452,
      "day": 453,
      "time": 454,
      ",\"": 455,
      "ink": 456,
      "sto": 457,
      "did": 458,
      "ite": 459,
      "bl": 460,
      "ance": 461,
      "able": 462,
      "pt": 463,
      "where": 464,
      "again": 465,
      "came": 466,
      "dis": 467,
      "gl": 468,
      "ye": 469,
      "ci": 470,
      "ade": 471,
      "?”": 472,
      "great": 473,
      "ot": 474,
      "gr": 475,
      "cl": 476,
      "down": 477,
      "pp": 478,
      "its": 479,
      "ack": 480,
      "ret": 481,
      "ire": 482,
      "night": 483,
      "ss": 484,
      "ful": 485,
      "ward": 486,
      "should": 487,
      "read": 488,
      "pr": 489,
      "ittle": 490,
      "about": 491,
      "ves": 492,
      "say": 493,
      "ang": 494,
      "ving": 495,
      "tain": 496,
      "only": 497,
      "long": 498,
      "ans": 499,
      "ree": 500,
      "men": 501,
      "light": 502,
      "pres": 503,
      "off": 504,
      "before": 505,
      "ever": 506,
      "most": 507,
      "come": 508,
      "such": 509,
      "well": 510,
      "thy": 511,
      "ies": 512,
      "ark": 513,
      "how": 514,
      "ice": 515,
      "use": 516,
      "ars": 517,
      "ness": 518,
      "des": 519,
      "ted": 520,
      "might": 521,
      "ple": 522,
      "ull": 523,
      "arm": 524,
      "little": 525,
      "good": 526,
      "uch": 527,
      "head": 528,
      "ally": 529,
      "We": 530,
      "ob": 531,
      "ried": 532,
      "age": 533,
      "must": 534,
      "fir": 535,
      "after": 536,
      "spe": 537,
      "ath": 538,
      "row": 539,
      "Then": 540,
      "went": 541,
      "ise": 542,
      "word": 543,
      "Mr": 544,
      "ey": 545,
      "hi": 546,
      "part": 547,
      "less": 548,
      "under": 549,
      "sc": 550,
      "made": 551,
      "two": 552,
      "In": 553,
      "fl": 554,
      "land": 555,
      "ered": 556,
      "back": 557,
      "thought": 558,
      "na": 559,
      "let": 560,
      "vo": 561,
      "rough": 562,
      "think": 563,
      "ft": 564,
      "may": 565,
      "shall": 566,
      "much": 567,
      "ated": 568,
      "pla": 569,
      "has": 570,
      "ning": 571,
      "new": 572,
      "ose": 573,
      "ave": 574,
      "llow": 575,
      "right": 576,
      "ue": 577,
      "ction": 578,
      "ord": 579,
      "first": 580,
      "So": 581,
      "never": 582,
      "ty": 583,
      "int": 584,
      "though": 585,
      "coun": 586,
      "ked": 587,
      "ber": 588,
      "ick": 589,
      "ps": 590,
      "led": 591,
      "bet": 592,
      "even": 593,
      "pre": 594,
      "ud": 595,
      "old": 596,
      "em": 597,
      "sed": 598,
      "these": 599,
      "br": 600,
      "pass": 601,
      "through": 602,
      "tra": 603,
      "che": 604,
      "wat": 605,
      "You": 606,
      "ced": 607,
      "tor": 608,
      "beg": 609,
      "ser": 610,
      "clo": 611,
      "ious": 612,
      "saw": 613,
      "eyes": 614,
      "king": 615,
      "cle": 616,
      "get": 617,
      "yet": 618,
      "ary": 619,
      "too": 620,
      "pa": 621,
      "turn": 622,
      "There": 623,
      "bro": 624,
      "side": 625,
      "himself": 626,
      "while": 627,
      "!”": 628,
      "lt": 629,
      "last": 630,
      "every": 631,
      "den": 632,
      "ces": 633,
      "ear": 634,
      "still": 635,
      "being": 636,
      "just": 637,
      "mer": 638,
      "call": 639,
      "away": 640,
      "car": 641,
      "Sir": 642,
      "found": 643,
      "thee": 644,
      "mon": 645,
      "?\"": 646,
      "tre": 647,
      "ened": 648,
      "tell": 649,
      "low": 650,
      "hor": 651,
      "bre": 652,
      "ign": 653,
      "att": 654,
      "full": 655,
      "av": 656,
      "sm": 657,
      "ol": 658,
      "sing": 659,
      "cour": 660,
      "ng": 661,
      "mor": 662,
      "She": 663,
      "make": 664,
      "ith": 665,
      "cause": 666,
      "heart": 667,
      "love": 668,
      "shi": 669,
      "What": 670,
      "ared": 671,
      "son": 672,
      "fer": 673,
      "They": 674,
      "ase": 675,
      "ings": 676,
      "Ch": 677,
      "jo": 678,
      "face": 679,
      "sup": 680,
      "ten": 681,
      "cont": 682,
      "gu": 683,
      "mind": 684,
      "rep": 685,
      "atter": 686,
      "mar": 687,
      "ions": 688,
      "..": 689,
      "fri": 690,
      "those": 691,
      "cer": 692,
      "till": 693,
      "far": 694,
      "seemed": 695,
      "don": 696,
      "ught": 697,
      "took": 698,
      "No": 699,
      "vi": 700,
      "without": 701,
      "wa": 702,
      "lie": 703,
      "life": 704,
      "ince": 705,
      "si": 706,
      "won": 707,
      "place": 708,
      "many": 709,
      "take": 710,
      "inter": 711,
      "ouse": 712,
      "set": 713,
      "ily": 714,
      "tic": 715,
      "hal": 716,
      "room": 717,
      "gra": 718,
      "nor": 719,
      "heard": 720,
      "For": 721,
      "cre": 722,
      "cy": 723,
      "ild": 724,
      "min": 725,
      "cted": 726,
      "looked": 727,
      "air": 728,
      "friend": 729,
      "To": 730,
      "ged": 731,
      "once": 732,
      "round": 733,
      "stand": 734,
      "war": 735,
      "put": 736,
      "di": 737,
      "ste": 738,
      "ting": 739,
      "aking": 740,
      "wind": 741,
      "ough": 742,
      "aw": 743,
      "par": 744,
      "fi": 745,
      "This": 746,
      "!\"": 747,
      "As": 748,
      "That": 749,
      "ts": 750,
      "ner": 751,
      "rest": 752,
      "appe": 753,
      "bed": 754,
      "bod": 755,
      "happ": 756,
      "door": 757,
      "ph": 758,
      "ently": 759,
      "got": 760,
      "nothing": 761,
      "lay": 762,
      "tru": 763,
      "left": 764,
      "ped": 765,
      "When": 766,
      "ks": 767,
      "dist": 768,
      "house": 769,
      "ung": 770,
      "gi": 771,
      "nat": 772,
      "lad": 773,
      "Jo": 774,
      "ev": 775,
      "eng": 776,
      "soon": 777,
      "je": 778,
      "answ": 779,
      "ither": 780,
      "want": 781,
      "mis": 782,
      "find": 783,
      "count": 784,
      "ren": 785,
      "sur": 786,
      "ched": 787,
      "each": 788,
      "cc": 789,
      "cha": 790,
      "At": 791,
      "dra": 792,
      "ield": 793,
      "both": 794,
      "ins": 795,
      "same": 796,
      "three": 797,
      "sil": 798,
      "str": 799,
      "bu": 800,
      "stood": 801,
      "ship": 802,
      "ling": 803,
      "cons": 804,
      "near": 805,
      "sho": 806,
      "St": 807,
      "sle": 808,
      "spo": 809,
      "another": 810,
      "myself": 811,
      "Now": 812,
      "ished": 813,
      "pped": 814,
      "cried": 815,
      "whom": 816,
      "fort": 817,
      "used": 818,
      "sat": 819,
      "stran": 820,
      "King": 821,
      "seen": 822,
      "against": 823,
      "follow": 824,
      "kind": 825,
      "give": 826,
      "asked": 827,
      "ush": 828,
      "ms": 829,
      "All": 830,
      "return": 831,
      "ster": 832,
      "moment": 833,
      "sk": 834,
      "young": 835,
      "began": 836,
      "body": 837,
      "hel": 838,
      "ready": 839,
      "knew": 840,
      "gg": 841,
      "words": 842,
      "tim": 843,
      "poss": 844,
      "fair": 845,
      "ross": 846,
      "If": 847,
      "tal": 848,
      "wr": 849,
      "les": 850,
      "sou": 851,
      "bla": 852,
      "aster": 853,
      "name": 854,
      "ef": 855,
      "hear": 856,
      "bra": 857,
      "stre": 858,
      "care": 859,
      "high": 860,
      "His": 861,
      "sit": 862,
      "world": 863,
      "fall": 864,
      "water": 865,
      "comp": 866,
      "My": 867,
      "dark": 868,
      "feel": 869,
      "Ar": 870,
      "swe": 871,
      "sure": 872,
      "ma": 873,
      "thus": 874,
      "ised": 875,
      "things": 876,
      "main": 877,
      "pleas": 878,
      "hands": 879,
      "ens": 880,
      "ash": 881,
      "because": 882,
      "pi": 883,
      "add": 884,
      "blo": 885,
      "tem": 886,
      "port": 887,
      "ls": 888,
      "ff": 889,
      "told": 890,
      "run": 891,
      "death": 892,
      "half": 893,
      "course": 894,
      "sea": 895,
      "deed": 896,
      "hold": 897,
      "With": 898,
      "show": 899,
      "father": 900,
      "plain": 901,
      "done": 902,
      "da": 903,
      "gave": 904,
      "voice": 905,
      "ined": 906,
      "toward": 907,
      "ons": 908,
      "lied": 909,
      "ible": 910,
      "turned": 911,
      "something": 912,
      "certain": 913,
      "bit": 914,
      "ways": 915,
      "ze": 916,
      "cond": 917,
      "ople": 918,
      "adv": 919,
      "sol": 920,
      "cu": 921,
      "dre": 922,
      "hour": 923,
      "times": 924,
      "dou": 925,
      "ile": 926,
      "cho": 927,
      "bes": 928,
      "gen": 929,
      "pur": 930,
      "sun": 931,
      "ian": 932,
      "pri": 933,
      "form": 934,
      "Pe": 935,
      "inst": 936,
      "fear": 937,
      "ga": 938,
      "aven": 939,
      "Fo": 940,
      "ta": 941,
      "sub": 942,
      "hu": 943,
      "ene": 944,
      "vis": 945,
      "ations": 946,
      "going": 947,
      "xt": 948,
      "ween": 949,
      "char": 950,
      "ress": 951,
      "hard": 952,
      "people": 953,
      "among": 954,
      "pow": 955,
      "Be": 956,
      "better": 957,
      "having": 958,
      "val": 959,
      "wall": 960,
      "pose": 961,
      "comm": 962,
      "ief": 963,
      "oud": 964,
      "cur": 965,
      "whose": 966,
      "ace": 967,
      "abo": 968,
      "rought": 969,
      "ister": 970,
      "dead": 971,
      "open": 972,
      "arms": 973,
      "cess": 974,
      "present": 975,
      "sound": 976,
      "between": 977,
      "cover": 978,
      "qui": 979,
      "und": 980,
      "belie": 981,
      "Al": 982,
      "quite": 983,
      "ken": 984,
      "God": 985,
      "cor": 986,
      "called": 987,
      "ER": 988,
      "act": 989,
      "ah": 990,
      "gether": 991,
      "aut": 992,
      "cent": 993,
      "order": 994,
      "quest": 995,
      "mean": 996,
      "enough": 997,
      "rather": 998,
      "ended": 999,
      "dden": 1000,
      "together": 1001,
      "Joh": 1002,
      "few": 1003,
      "whole": 1004,
      "wal": 1005,
      "since": 1006,
      "keep": 1007,
      "ures": 1008,
      "iness": 1009,
      "tow": 1010,
      "cri": 1011,
      "ating": 1012,
      "child": 1013,
      "ason": 1014,
      "point": 1015,
      "exce": 1016,
      "fell": 1017,
      "sent": 1018,
      "gir": 1019,
      "ond": 1020,
      "sudden": 1021,
      "iss": 1022,
      "selves": 1023,
      "gent": 1024,
      "oth": 1025,
      "On": 1026,
      "iled": 1027,
      "matter": 1028,
      "John": 1029,
      "dif": 1030,
      "ring": 1031,
      "hale": 1032,
      "felt": 1033,
      "ground": 1034,
      "thir": 1035,
      "black": 1036,
      "along": 1037,
      "knight": 1038,
      "unt": 1039,
      "Of": 1040,
      "tri": 1041,
      "white": 1042,
      "hind": 1043,
      "sand": 1044,
      "ides": 1045,
      "Oh": 1046,
      "ned": 1047,
      "ors": 1048,
      "hon": 1049,
      "fin": 1050,
      "stra": 1051,
      "Well": 1052,
      "iz": 1053,
      "also": 1054,
      "brought": 1055,
      "ather": 1056,
      "occ": 1057,
      "almost": 1058,
      "replied": 1059,
      "sl": 1060,
      "fect": 1061,
      "feet": 1062,
      "cr": 1063,
      "How": 1064,
      "ular": 1065,
      "ute": 1066,
      "ron": 1067,
      "pect": 1068,
      "vers": 1069,
      "morning": 1070,
      "beaut": 1071,
      "Nor": 1072,
      "ited": 1073,
      "ult": 1074,
      "ane": 1075,
      "mber": 1076,
      "doub": 1077,
      "wonder": 1078,
      "haps": 1079,
      "best": 1080,
      "passed": 1081,
      "cei": 1082,
      "ual": 1083,
      "ates": 1084,
      "mark": 1085,
      "sight": 1086,
      "ject": 1087,
      "fire": 1088,
      "earth": 1089,
      "blood": 1090,
      "bow": 1091,
      "dear": 1092,
      "days": 1093,
      "forth": 1094,
      "serv": 1095,
      "TH": 1096,
      "uck": 1097,
      "wood": 1098,
      "always": 1099,
      "En": 1100,
      "chief": 1101,
      "igh": 1102,
      "aken": 1103,
      "ris": 1104,
      "poor": 1105,
      "known": 1106,
      "que": 1107,
      "work": 1108,
      "Mrs": 1109,
      "flo": 1110,
      "looking": 1111,
      "bar": 1112,
      "fully": 1113,
      "ering": 1114,
      "speak": 1115,
      "small": 1116,
      "sleep": 1117,
      "ask": 1118,
      "coming": 1119,
      "imp": 1120,
      "reg": 1121,
      "lic": 1122,
      "orn": 1123,
      "stru": 1124,
      "ood": 1125,
      "ied": 1126,
      "joy": 1127,
      "til": 1128,
      "Yes": 1129,
      "indeed": 1130,
      "behind": 1131,
      "reach": 1132,
      "need": 1133,
      "lar": 1134,
      "ery": 1135,
      "hope": 1136,
      "cut": 1137,
      "country": 1138,
      "draw": 1139,
      "fle": 1140,
      "next": 1141,
      "four": 1142,
      "conf": 1143,
      "above": 1144,
      "gone": 1145,
      "road": 1146,
      "moun": 1147,
      "leave": 1148,
      "lady": 1149,
      "boat": 1150,
      "whe": 1151,
      "step": 1152,
      "Se": 1153,
      "met": 1154,
      "eye": 1155,
      "chan": 1156,
      "answered": 1157,
      "Rob": 1158,
      "brother": 1159,
      "woman": 1160,
      "cast": 1161,
      "strange": 1162,
      "ctor": 1163,
      "mid": 1164,
      "held": 1165,
      "herself": 1166,
      "sort": 1167,
      "ia": 1168,
      "press": 1169,
      "fur": 1170,
      "bey": 1171,
      "dire": 1172,
      "ub": 1173,
      "als": 1174,
      "boy": 1175,
      "god": 1176,
      "band": 1177,
      "sor": 1178,
      "fast": 1179,
      "gener": 1180,
      "cked": 1181,
      "either": 1182,
      "ger": 1183,
      "tr": 1184,
      "gentle": 1185,
      "mother": 1186,
      "sir": 1187,
      "CH": 1188,
      "contin": 1189,
      "An": 1190,
      "aring": 1191,
      "close": 1192,
      "hur": 1193,
      "until": 1194,
      "stri": 1195,
      "fam": 1196,
      "mine": 1197,
      "years": 1198,
      "acc": 1199,
      "reme": 1200,
      "master": 1201,
      "By": 1202,
      "ows": 1203,
      "hast": 1204,
      "person": 1205,
      "ense": 1206,
      "arch": 1207,
      "pain": 1208,
      "deep": 1209,
      "hath": 1210,
      "others": 1211,
      "vent": 1212,
      "Do": 1213,
      "leg": 1214,
      "help": 1215,
      "cou": 1216,
      "power": 1217,
      "ugh": 1218,
      "dro": 1219,
      "wild": 1220,
      "within": 1221,
      "cks": 1222,
      "home": 1223,
      "anger": 1224,
      "sweet": 1225,
      "cla": 1226,
      "whale": 1227,
      "Her": 1228,
      "Robin": 1229,
      "Not": 1230,
      "ants": 1231,
      "Why": 1232,
      "undred": 1233,
      "sign": 1234,
      "bus": 1235,
      "dr": 1236,
      "bur": 1237,
      "lot": 1238,
      "Engl": 1239,
      "note": 1240,
      "cannot": 1241,
      "ments": 1242,
      "cra": 1243,
      "utter": 1244,
      "anything": 1245,
      "ches": 1246,
      "ket": 1247,
      "ines": 1248,
      "ils": 1249,
      "Co": 1250,
      "start": 1251,
      "fellow": 1252,
      "remain": 1253,
      "towards": 1254,
      "rid": 1255,
      "ical": 1256,
      "field": 1257,
      "spir": 1258,
      "sister": 1259,
      "does": 1260,
      "dri": 1261,
      "play": 1262,
      "au": 1263,
      "however": 1264,
      "rage": 1265,
      "tive": 1266,
      "short": 1267,
      "least": 1268,
      "hundred": 1269,
      "smo": 1270,
      "live": 1271,
      "ney": 1272,
      "Ro": 1273,
      "fre": 1274,
      "taken": 1275,
      "cal": 1276,
      "cir": 1277,
      "oft": 1278,
      "Pr": 1279,
      "Who": 1280,
      "TER": 1281,
      "doubt": 1282,
      "outh": 1283,
      "fight": 1284,
      "alone": 1285,
      "ater": 1286,
      "eas": 1287,
      "themselves": 1288,
      "reason": 1289,
      "II": 1290,
      "real": 1291,
      "wish": 1292,
      "foot": 1293,
      "perhaps": 1294,
      "col": 1295,
      "ought": 1296,
      "possible": 1297,
      "believe": 1298,
      "ank": 1299,
      "gold": 1300,
      "ately": 1301,
      "hall": 1302,
      "ents": 1303,
      "AP": 1304,
      "why": 1305,
      "laugh": 1306,
      "already": 1307,
      "bring": 1308,
      "ughter": 1309,
      "ceived": 1310,
      "lost": 1311,
      "prom": 1312,
      "rose": 1313,
      "sum": 1314,
      "Peter": 1315,
      "pret": 1316,
      "second": 1317,
      "appeared": 1318,
      "girl": 1319,
      "Mar": 1320,
      "lled": 1321,
      "strong": 1322,
      "thor": 1323,
      "shad": 1324,
      "uring": 1325,
      "du": 1326,
      "fortun": 1327,
      "pal": 1328,
      "meet": 1329,
      "green": 1330,
      "wait": 1331,
      "De": 1332,
      "roy": 1333,
      "ching": 1334,
      "seem": 1335,
      "mb": 1336,
      "ones": 1337,
      "true": 1338,
      "ition": 1339,
      "rying": 1340,
      "consid": 1341,
      "given": 1342,
      "around": 1343,
      "saying": 1344,
      "vel": 1345,
      "reat": 1346,
      "ably": 1347,
      "spoke": 1348,
      "case": 1349,
      "mist": 1350,
      "...": 1351,
      "THE": 1352,
      "CHAP": 1353,
      "CHAPTER": 1354,
      "mp": 1355,
      "Miss": 1356,
      "num": 1357,
      "ial": 1358,
      "wise": 1359,
      "stay": 1360,
      "horse": 1361,
      "ided": 1362,
      "therefore": 1363,
      "tran": 1364,
      "dest": 1365,
      "mil": 1366,
      "rel": 1367,
      "cap": 1368,
      "suddenly": 1369,
      "za": 1370,
      "cing": 1371,
      "thousand": 1372,
      "fic": 1373,
      "else": 1374,
      "lear": 1375,
      "continu": 1376,
      "ham": 1377,
      "mbl": 1378,
      "Lo": 1379,
      "Is": 1380,
      "aint": 1381,
      "ances": 1382,
      "law": 1383,
      "jud": 1384,
      "har": 1385,
      "kept": 1386,
      "),": 1387,
      "ison": 1388,
      "sy": 1389,
      "rious": 1390,
      "thr": 1391,
      "line": 1392,
      "ature": 1393,
      "quick": 1394,
      "stead": 1395,
      "amp": 1396,
      "Mo": 1397,
      "Min": 1398,
      "cious": 1399,
      "appro": 1400,
      "tou": 1401,
      "ich": 1402,
      "Tom": 1403,
      "Where": 1404,
      "ses": 1405,
      "posed": 1406,
      "vol": 1407,
      "across": 1408,
      "safe": 1409,
      "large": 1410,
      "cross": 1411,
      "sword": 1412,
      "returned": 1413,
      "app": 1414,
      "human": 1415,
      "heaven": 1416,
      "sec": 1417,
      "ters": 1418,
      "followed": 1419,
      "force": 1420,
      "Here": 1421,
      "crow": 1422,
      "enter": 1423,
      "unto": 1424,
      "Dav": 1425,
      "often": 1426,
      "uncle": 1427,
      "dev": 1428,
      "answer": 1429,
      "list": 1430,
      "irt": 1431,
      "covered": 1432,
      "ert": 1433,
      "happy": 1434,
      "Re": 1435,
      "really": 1436,
      "bir": 1437,
      "none": 1438,
      "wound": 1439,
      "cold": 1440,
      "mouth": 1441,
      "command": 1442,
      "mur": 1443,
      "illed": 1444,
      "clear": 1445,
      "hes": 1446,
      "sever": 1447,
      "atch": 1448,
      "bear": 1449,
      "iling": 1450,
      "interest": 1451,
      "manner": 1452,
      "whether": 1453,
      "tt": 1454,
      "book": 1455,
      "ours": 1456,
      "pra": 1457,
      "instant": 1458,
      "flow": 1459,
      "aid": 1460,
      "ude": 1461,
      "past": 1462,
      "itself": 1463,
      "drew": 1464,
      "scar": 1465,
      "ceed": 1466,
      "soul": 1467,
      "gri": 1468,
      "tis": 1469,
      "mus": 1470,
      "Phi": 1471,
      "lly": 1472,
      "wit": 1473,
      "ror": 1474,
      "rist": 1475,
      "ray": 1476,
      "pray": 1477,
      "hill": 1478,
      "mort": 1479,
      "danger": 1480,
      "means": 1481,
      "lying": 1482,
      "die": 1483,
      "five": 1484,
      "inted": 1485,
      "appear": 1486,
      "ending": 1487,
      "ati": 1488,
      "slow": 1489,
      "forward": 1490,
      "standing": 1491,
      "itting": 1492,
      "bound": 1493,
      "nature": 1494,
      "city": 1495,
      "ured": 1496,
      "Car": 1497,
      "ofess": 1498,
      "table": 1499,
      "claim": 1500,
      "leng": 1501,
      "wife": 1502,
      "differ": 1503,
      "aunt": 1504,
      "lea": 1505,
      "window": 1506,
      "ities": 1507,
      "posit": 1508,
      "Let": 1509,
      "ining": 1510,
      "glad": 1511,
      "board": 1512,
      "break": 1513,
      "quiet": 1514,
      "gain": 1515,
      "capt": 1516,
      "natur": 1517,
      "iew": 1518,
      "taking": 1519,
      "wel": 1520,
      "adm": 1521,
      "making": 1522,
      "imag": 1523,
      "six": 1524,
      "hy": 1525,
      "mountain": 1526,
      "One": 1527,
      "move": 1528,
      "ames": 1529,
      "iful": 1530,
      "fact": 1531,
      "dream": 1532,
      "lead": 1533,
      "trees": 1534,
      "question": 1535,
      "Eli": 1536,
      "peri": 1537,
      "bright": 1538,
      "fter": 1539,
      "ni": 1540,
      "ased": 1541,
      "lies": 1542,
      "mot": 1543,
      "trou": 1544,
      "tempt": 1545,
      "Per": 1546,
      "rible": 1547,
      "length": 1548,
      "ging": 1549,
      "ory": 1550,
      "Le": 1551,
      "From": 1552,
      "hair": 1553,
      "became": 1554,
      "ele": 1555,
      "view": 1556,
      "Or": 1557,
      "tern": 1558,
      "evening": 1559,
      "lit": 1560,
      "lice": 1561,
      "says": 1562,
      "fron": 1563,
      "town": 1564,
      "Cap": 1565,
      "opened": 1566,
      "cloud": 1567,
      "rew": 1568,
      "tory": 1569,
      "oney": 1570,
      "Lord": 1571,
      "xed": 1572,
      "heav": 1573,
      "Eliza": 1574,
      "ident": 1575,
      "Some": 1576,
      "compan": 1577,
      "exc": 1578,
      "fav": 1579,
      "Foot": 1580,
      "begin": 1581,
      "After": 1582,
      "dy": 1583,
      "hum": 1584,
      "friends": 1585,
      "batt": 1586,
      "quar": 1587,
      "delight": 1588,
      "story": 1589,
      "ctions": 1590,
      "top": 1591,
      "change": 1592,
      "sw": 1593,
      "reached": 1594,
      "Lion": 1595,
      "lord": 1596,
      "Ho": 1597,
      "neither": 1598,
      "pie": 1599,
      "surpr": 1600,
      "ries": 1601,
      "talk": 1602,
      "grow": 1603,
      "straight": 1604,
      "Footnote": 1605,
      "tom": 1606,
      "chance": 1607,
      "prin": 1608,
      "hung": 1609,
      "moved": 1610,
      "fine": 1611,
      "ingly": 1612,
      "thoughts": 1613,
      "Arth": 1614,
      "cru": 1615,
      "ds": 1616,
      "fra": 1617,
      "ually": 1618,
      "asion": 1619,
      "mag": 1620,
      "squ": 1621,
      "mighty": 1622,
      "wenty": 1623,
      "big": 1624,
      "plan": 1625,
      "struck": 1626,
      "Sh": 1627,
      "stopped": 1628,
      "Li": 1629,
      "below": 1630,
      "burn": 1631,
      "carried": 1632,
      "ushed": 1633,
      "Arthur": 1634,
      "lle": 1635,
      "state": 1636,
      "silence": 1637,
      "noble": 1638,
      "deli": 1639,
      "grave": 1640,
      "ley": 1641,
      "sometimes": 1642,
      "itted": 1643,
      "guard": 1644,
      "ib": 1645,
      "pected": 1646,
      "az": 1647,
      "dread": 1648,
      "children": 1649,
      "dam": 1650,
      "ili": 1651,
      "Elizabe": 1652,
      "ny": 1653,
      "late": 1654,
      "sla": 1655,
      "ends": 1656,
      "utes": 1657,
      "suppose": 1658,
      "Jane": 1659,
      "sus": 1660,
      "ame": 1661,
      "free": 1662,
      "stone": 1663,
      "fan": 1664,
      "rock": 1665,
      "daughter": 1666,
      "gar": 1667,
      "pen": 1668,
      "beyond": 1669,
      "mad": 1670,
      "ext": 1671,
      "sage": 1672,
      "aren": 1673,
      "truth": 1674,
      "secret": 1675,
      "twenty": 1676,
      "entered": 1677,
      "hours": 1678,
      "ax": 1679,
      "further": 1680,
      "sorrow": 1681,
      "English": 1682,
      ":--": 1683,
      "bri": 1684,
      "remember": 1685,
      "cus": 1686,
      "save": 1687,
      "jour": 1688,
      "rup": 1689,
      "pair": 1690,
      "Elizabeth": 1691,
      "Po": 1692,
      "pit": 1693,
      "asse": 1694,
      "chang": 1695,
      "company": 1696,
      "necess": 1697,
      "akes": 1698,
      "Que": 1699,
      "ats": 1700,
      "ized": 1701,
      "continued": 1702,
      "lips": 1703,
      "arrow": 1704,
      "riage": 1705,
      "ening": 1706,
      "affe": 1707,
      "added": 1708,
      "sail": 1709,
      "captain": 1710,
      "ier": 1711,
      "soft": 1712,
      "front": 1713,
      "oured": 1714,
      "youth": 1715,
      "Qu": 1716,
      "super": 1717,
      "swi": 1718,
      "ug": 1719,
      "cept": 1720,
      "Ne": 1721,
      "loved": 1722,
      "comfort": 1723,
      "fig": 1724,
      "tried": 1725,
      "streng": 1726,
      "plo": 1727,
      "glass": 1728,
      "Davies": 1729,
      "inc": 1730,
      "itude": 1731,
      "bene": 1732,
      "money": 1733,
      "Yet": 1734,
      "perfect": 1735,
      "watch": 1736,
      "arri": 1737,
      "cry": 1738,
      "lling": 1739,
      "Thus": 1740,
      "gro": 1741,
      "lands": 1742,
      ",--": 1743,
      "moon": 1744,
      "ages": 1745,
      "sim": 1746,
      "hab": 1747,
      "pping": 1748,
      "repe": 1749,
      "formed": 1750,
      "except": 1751,
      "vain": 1752,
      "laid": 1753,
      "offic": 1754,
      "var": 1755,
      "wards": 1756,
      "consider": 1757,
      "gy": 1758,
      "sal": 1759,
      "oul": 1760,
      "kes": 1761,
      "scarce": 1762,
      "miles": 1763,
      "dec": 1764,
      "broken": 1765,
      "Cur": 1766,
      "exam": 1767,
      "longer": 1768,
      "kne": 1769,
      "seems": 1770,
      "div": 1771,
      "Captain": 1772,
      "ges": 1773,
      "breath": 1774,
      "thinking": 1775,
      "common": 1776,
      "Dar": 1777,
      "ofessor": 1778,
      "cum": 1779,
      "ming": 1780,
      "va": 1781,
      "Ear": 1782,
      "iff": 1783,
      "minutes": 1784,
      "pers": 1785,
      "whis": 1786,
      "IN": 1787,
      "during": 1788,
      "try": 1789,
      "court": 1790,
      "become": 1791,
      "Fogg": 1792,
      "subject": 1793,
      "mortal": 1794,
      "eth": 1795,
      "comple": 1796,
      "fif": 1797,
      "ative": 1798,
      "race": 1799,
      "hus": 1800,
      "ention": 1801,
      "seeing": 1802,
      "yourself": 1803,
      "ref": 1804,
      "suff": 1805,
      "wanted": 1806,
      "host": 1807,
      "maid": 1808,
      "ek": 1809,
      "drink": 1810,
      "bad": 1811,
      "ific": 1812,
      "idea": 1813,
      "pleasure": 1814,
      "occasion": 1815,
      "happened": 1816,
      "charac": 1817,
      "faith": 1818,
      "ping": 1819,
      "cient": 1820,
      "didn": 1821,
      "ford": 1822,
      "deck": 1823,
      "understand": 1824,
      "sion": 1825,
      "key": 1826,
      "train": 1827,
      "natural": 1828,
      "rend": 1829,
      "ceive": 1830,
      "sky": 1831,
      "approach": 1832,
      "bid": 1833,
      "owed": 1834,
      "women": 1835,
      "deal": 1836,
      "ledge": 1837,
      "bs": 1838,
      "beautiful": 1839,
      "strength": 1840,
      "fla": 1841,
      "virt": 1842,
      "comes": 1843,
      "ination": 1844,
      "raid": 1845,
      "Will": 1846,
      "lan": 1847,
      "mane": 1848,
      "floor": 1849,
      "AN": 1850,
      "pes": 1851,
      "Un": 1852,
      "Heaven": 1853,
      "din": 1854,
      "ding": 1855,
      "ilt": 1856,
      "grew": 1857,
      "Dor": 1858,
      "Gree": 1859,
      "Professor": 1860,
      "position": 1861,
      "Cha": 1862,
      "received": 1863,
      "desire": 1864,
      "honour": 1865,
      "Me": 1866,
      "feeling": 1867,
      "stud": 1868,
      "quoth": 1869,
      "everything": 1870,
      "satis": 1871,
      "os": 1872,
      "resol": 1873,
      "respect": 1874,
      "several": 1875,
      "shore": 1876,
      "sense": 1877,
      "tro": 1878,
      "inv": 1879,
      "blow": 1880,
      "desc": 1881,
      "fortune": 1882,
      "letter": 1883,
      "pas": 1884,
      "ards": 1885,
      "ordin": 1886,
      "pon": 1887,
      "tree": 1888,
      "qual": 1889,
      "ility": 1890,
      "bled": 1891,
      "Sco": 1892,
      "ears": 1893,
      "net": 1894,
      "cles": 1895,
      "grace": 1896,
      "partic": 1897,
      "prob": 1898,
      "walked": 1899,
      "rit": 1900,
      "account": 1901,
      "morrow": 1902,
      "beauty": 1903,
      "living": 1904,
      "amed": 1905,
      "pointed": 1906,
      "yes": 1907,
      "depart": 1908,
      "pressed": 1909,
      "pretty": 1910,
      "lim": 1911,
      "bold": 1912,
      "beside": 1913,
      "journey": 1914,
      "gall": 1915,
      "dog": 1916,
      "breast": 1917,
      "possess": 1918,
      "broad": 1919,
      "pleasant": 1920,
      "Mother": 1921,
      "esca": 1922,
      "stair": 1923,
      "showed": 1924,
      "gentleman": 1925,
      "Par": 1926,
      "ressed": 1927,
      "Curtis": 1928,
      "Ben": 1929,
      "anim": 1930,
      "descri": 1931,
      "motion": 1932,
      "eat": 1933,
      "stro": 1934,
      "evil": 1935,
      "uous": 1936,
      "box": 1937,
      "afraid": 1938,
      "pull": 1939,
      "deter": 1940,
      "ets": 1941,
      "These": 1942,
      "beneath": 1943,
      "Tro": 1944,
      "dep": 1945,
      "mere": 1946,
      "yield": 1947,
      "thes": 1948,
      "shot": 1949,
      "aged": 1950,
      "Hel": 1951,
      "Allah": 1952,
      "ban": 1953,
      "Christ": 1954,
      "advent": 1955,
      "purpose": 1956,
      "husband": 1957,
      "mes": 1958,
      "ety": 1959,
      "doing": 1960,
      "Zel": 1961,
      "spee": 1962,
      "darkness": 1963,
      "reco": 1964,
      "idence": 1965,
      "Zelmane": 1966,
      "fing": 1967,
      "fish": 1968,
      "hid": 1969,
      "uff": 1970,
      "leve": 1971,
      "rain": 1972,
      "bour": 1973,
      "mn": 1974,
      "wide": 1975,
      "slowly": 1976,
      "loud": 1977,
      "ount": 1978,
      "blue": 1979,
      "brid": 1980,
      "wrong": 1981,
      "def": 1982,
      "shout": 1983,
      "shar": 1984,
      "pet": 1985,
      "worth": 1986,
      "fresh": 1987,
      "number": 1988,
      "suf": 1989,
      "succ": 1990,
      "prison": 1991,
      "angu": 1992,
      "served": 1993,
      "warri": 1994,
      "distance": 1995,
      "trust": 1996,
      "concer": 1997,
      "tears": 1998,
      "rap": 1999,
      "placed": 2000,
      "iously": 2001,
      "Lad": 2002,
      "ired": 2003,
      "ton": 2004,
      "courage": 2005,
      "spirit": 2006,
      "Mord": 2007,
      "vill": 2008,
      "remark": 2009,
      "diffic": 2010,
      "Mordaunt": 2011,
      "deser": 2012,
      "Lionel": 2013,
      "fit": 2014,
      "pir": 2015,
      "ths": 2016,
      "etc": 2017,
      "thick": 2018,
      "bell": 2019,
      "sult": 2020,
      "Lon": 2021,
      "dle": 2022,
      "ius": 2023,
      "Ahab": 2024,
      "weak": 2025,
      "expected": 2026,
      "running": 2027,
      "battle": 2028,
      "effect": 2029,
      "fal": 2030,
      "exact": 2031,
      "business": 2032,
      "Little": 2033,
      "While": 2034,
      "fat": 2035,
      "presently": 2036,
      "viol": 2037,
      "general": 2038,
      "character": 2039,
      "worthy": 2040,
      "neck": 2041,
      "roud": 2042,
      "different": 2043,
      "zed": 2044,
      "--\"": 2045,
      "certainly": 2046,
      "Ind": 2047,
      "express": 2048,
      "Marti": 2049,
      "London": 2050,
      "Ell": 2051,
      "ix": 2052,
      "sole": 2053,
      "caught": 2054,
      "ager": 2055,
      "Em": 2056,
      "Mon": 2057,
      "year": 2058,
      "brave": 2059,
      "suffer": 2060,
      "ior": 2061,
      "getting": 2062,
      "walk": 2063,
      "lif": 2064,
      "obb": 2065,
      "heavy": 2066,
      "Don": 2067,
      "sitting": 2068,
      "river": 2069,
      "perm": 2070,
      "Come": 2071,
      "build": 2072,
      "Ste": 2073,
      "rab": 2074,
      "proper": 2075,
      "sen": 2076,
      "iting": 2077,
      "medi": 2078,
      "ians": 2079,
      "wis": 2080,
      "peace": 2081,
      "stranger": 2082,
      "XX": 2083,
      "dare": 2084,
      "sold": 2085,
      "See": 2086,
      "Good": 2087,
      "cro": 2088,
      "glo": 2089,
      "scho": 2090,
      "anced": 2091,
      "expect": 2092,
      "rank": 2093,
      "turning": 2094,
      "accord": 2095,
      "particular": 2096,
      "usual": 2097,
      "clock": 2098,
      "stream": 2099,
      "kill": 2100,
      "lived": 2101,
      "presence": 2102,
      "early": 2103,
      "excell": 2104,
      "atures": 2105,
      "family": 2106,
      "assu": 2107,
      "terrible": 2108,
      "Bobb": 2109,
      "fool": 2110,
      "nearly": 2111,
      "_A": 2112,
      "whisper": 2113,
      "Bobbie": 2114,
      "habit": 2115,
      "speed": 2116,
      "steps": 2117,
      "lab": 2118,
      "third": 2119,
      "success": 2120,
      "import": 2121,
      "hardly": 2122,
      "cket": 2123,
      "ctive": 2124,
      "later": 2125,
      "fier": 2126,
      "sharp": 2127,
      "cul": 2128,
      "tle": 2129,
      "gods": 2130,
      "ON": 2131,
      "tired": 2132,
      "spread": 2133,
      "Cleve": 2134,
      "eness": 2135,
      "rich": 2136,
      "shame": 2137,
      "regard": 2138,
      "Bar": 2139,
      "Da": 2140,
      "dut": 2141,
      "cred": 2142,
      "raised": 2143,
      "explain": 2144,
      "passion": 2145,
      "silent": 2146,
      "circum": 2147,
      "quickly": 2148,
      "Cleveland": 2149,
      "attempt": 2150,
      "iced": 2151,
      "proceed": 2152,
      "eight": 2153,
      "ost": 2154,
      "zz": 2155,
      "castle": 2156,
      "ordinary": 2157,
      "sad": 2158,
      "ution": 2159,
      "Lu": 2160,
      "vic": 2161,
      "mand": 2162,
      "rance": 2163,
      "hang": 2164,
      "rise": 2165,
      "threw": 2166,
      "van": 2167,
      "isted": 2168,
      "heads": 2169,
      "knights": 2170,
      "Sher": 2171,
      "ded": 2172,
      "edge": 2173,
      "stor": 2174,
      "ital": 2175,
      "aded": 2176,
      "acqu": 2177,
      "prince": 2178,
      "affection": 2179,
      "object": 2180,
      "tial": 2181,
      "huge": 2182,
      "ying": 2183,
      "meant": 2184,
      "forest": 2185,
      "fied": 2186,
      "walls": 2187,
      "Philo": 2188,
      "noon": 2189,
      "Con": 2190,
      "Ra": 2191,
      "leaving": 2192,
      "determin": 2193,
      "Lady": 2194,
      "seat": 2195,
      "usion": 2196,
      "pict": 2197,
      "pursu": 2198,
      "Sun": 2199,
      "sn": 2200,
      "cially": 2201,
      "ald": 2202,
      "gard": 2203,
      "trouble": 2204,
      "hat": 2205,
      "iron": 2206,
      "please": 2207,
      "spl": 2208,
      "Jove": 2209,
      "rising": 2210,
      "closed": 2211,
      "silver": 2212,
      "laughed": 2213,
      "fate": 2214,
      "gle": 2215,
      "stret": 2216,
      "shook": 2217,
      "Red": 2218,
      "fright": 2219,
      "hero": 2220,
      "throw": 2221,
      "broke": 2222,
      "tong": 2223,
      "Alan": 2224,
      "speech": 2225,
      "ration": 2226,
      "urch": 2227,
      "Thou": 2228,
      "trave": 2229,
      "rench": 2230,
      "dim": 2231,
      "itten": 2232,
      "iv": 2233,
      "nest": 2234,
      "sli": 2235,
      "leap": 2236,
      "ously": 2237,
      "atever": 2238,
      "clea": 2239,
      "started": 2240,
      "ns": 2241,
      "conce": 2242,
      "service": 2243,
      "bor": 2244,
      "cas": 2245,
      "dust": 2246,
      "send": 2247,
      "atherine": 2248,
      "AR": 2249,
      "Catherine": 2250,
      "ising": 2251,
      "alus": 2252,
      "anx": 2253,
      "tained": 2254,
      "party": 2255,
      "clothes": 2256,
      "ladies": 2257,
      "easy": 2258,
      "Christine": 2259,
      "ago": 2260,
      "gun": 2261,
      "ient": 2262,
      "bless": 2263,
      "passing": 2264,
      "curious": 2265,
      "changed": 2266,
      "seek": 2267,
      "hot": 2268,
      "remained": 2269,
      "Your": 2270,
      "former": 2271,
      "bot": 2272,
      "following": 2273,
      "doth": 2274,
      "lin": 2275,
      "pity": 2276,
      "alth": 2277,
      "knowledge": 2278,
      "chair": 2279,
      "pan": 2280,
      "forgot": 2281,
      "necessary": 2282,
      "athe": 2283,
      "pun": 2284,
      "song": 2285,
      "espe": 2286,
      "vessel": 2287,
      "content": 2288,
      "tel": 2289,
      "marriage": 2290,
      "gate": 2291,
      "stop": 2292,
      "favour": 2293,
      "New": 2294,
      "Darcy": 2295,
      "Van": 2296,
      "slight": 2297,
      "inct": 2298,
      "lean": 2299,
      "memor": 2300,
      "sport": 2301,
      "ashed": 2302,
      "school": 2303,
      "obey": 2304,
      "vast": 2305,
      "scene": 2306,
      "rent": 2307,
      "Hood": 2308,
      "seven": 2309,
      "ender": 2310,
      "cord": 2311,
      "entire": 2312,
      "chester": 2313,
      "smile": 2314,
      "Philoclea": 2315,
      "itch": 2316,
      "Heav": 2317,
      "attention": 2318,
      "beginning": 2319,
      "orig": 2320,
      "iment": 2321,
      "por": 2322,
      "speaking": 2323,
      "claimed": 2324,
      "proud": 2325,
      "wand": 2326,
      "—”": 2327,
      "myster": 2328,
      "Pro": 2329,
      "gon": 2330,
      "incl": 2331,
      "carry": 2332,
      "stern": 2333,
      "Rich": 2334,
      "experi": 2335,
      "ball": 2336,
      "armed": 2337,
      "chill": 2338,
      "spect": 2339,
      "origin": 2340,
      "Ye": 2341,
      "whal": 2342,
      "ament": 2343,
      "blind": 2344,
      "susp": 2345,
      "18": 2346,
      "Gre": 2347,
      "sake": 2348,
      "log": 2349,
      "dom": 2350,
      "mal": 2351,
      "mass": 2352,
      "tar": 2353,
      "erable": 2354,
      "lake": 2355,
      "extre": 2356,
      "venge": 2357,
      "firm": 2358,
      "England": 2359,
      "piece": 2360,
      "island": 2361,
      "charm": 2362,
      "doctor": 2363,
      "fierce": 2364,
      "tone": 2365,
      "ram": 2366,
      "suc": 2367,
      "hood": 2368,
      "spring": 2369,
      "married": 2370,
      "giving": 2371,
      ").": 2372,
      "ties": 2373,
      "outside": 2374,
      "worse": 2375,
      "reck": 2376,
      "direction": 2377,
      "waiting": 2378,
      "especially": 2379,
      "Ph": 2380,
      "born": 2381,
      "swift": 2382,
      ":—": 2383,
      "Ah": 2384,
      "Alice": 2385,
      "Lance": 2386,
      "thro": 2387,
      "thunder": 2388,
      "north": 2389,
      "IS": 2390,
      "OF": 2391,
      "filled": 2392,
      "beast": 2393,
      "ices": 2394,
      "died": 2395,
      "Ha": 2396,
      "author": 2397,
      "Can": 2398,
      "Com": 2399,
      "wine": 2400,
      "direct": 2401,
      "Minna": 2402,
      "rapid": 2403,
      "Ly": 2404,
      "warm": 2405,
      "sequ": 2406,
      "ric": 2407,
      "ists": 2408,
      "French": 2409,
      "Man": 2410,
      "ury": 2411,
      "Sha": 2412,
      "bb": 2413,
      "ii": 2414,
      "enjoy": 2415,
      "minute": 2416,
      "figure": 2417,
      ".'": 2418,
      "Our": 2419,
      "Py": 2420,
      "enger": 2421,
      "tast": 2422,
      "test": 2423,
      "aked": 2424,
      "knows": 2425,
      "greater": 2426,
      "news": 2427,
      "Dick": 2428,
      "eks": 2429,
      "fly": 2430,
      "mention": 2431,
      "fled": 2432,
      "fallen": 2433,
      "cab": 2434,
      "mir": 2435,
      "lig": 2436,
      "deliver": 2437,
      "fu": 2438,
      "vey": 2439,
      "hurt": 2440,
      "touch": 2441,
      "arent": 2442,
      "twi": 2443,
      "instead": 2444,
      "partout": 2445,
      "crew": 2446,
      "chamber": 2447,
      "drawn": 2448,
      "Passe": 2449,
      "cand": 2450,
      "harm": 2451,
      "pay": 2452,
      "extra": 2453,
      "somewhat": 2454,
      "sought": 2455,
      "Passepartout": 2456,
      "fun": 2457,
      "asure": 2458,
      "const": 2459,
      "single": 2460,
      "boys": 2461,
      "Earth": 2462,
      "slain": 2463,
      "murder": 2464,
      "Did": 2465,
      "hide": 2466,
      "iant": 2467,
      "tall": 2468,
      "beat": 2469,
      "neigh": 2470,
      "spot": 2471,
      "complete": 2472,
      "stairs": 2473,
      "circumst": 2474,
      "Lancelot": 2475,
      "path": 2476,
      "ues": 2477,
      "ghost": 2478,
      "shield": 2479,
      "prep": 2480,
      "serve": 2481,
      "contr": 2482,
      "phe": 2483,
      "ancient": 2484,
      "eds": 2485,
      "ony": 2486,
      "aled": 2487,
      "forget": 2488,
      "besides": 2489,
      "rememb": 2490,
      "dress": 2491,
      "immedi": 2492,
      "pale": 2493,
      "pleased": 2494,
      "learned": 2495,
      "ao": 2496,
      "yon": 2497,
      "Hector": 2498,
      "charge": 2499,
      "learn": 2500,
      "Arab": 2501,
      "soci": 2502,
      "ounds": 2503,
      "ishment": 2504,
      "distant": 2505,
      "thine": 2506,
      "decl": 2507,
      "shoulder": 2508,
      "mbling": 2509,
      "som": 2510,
      "Their": 2511,
      "post": 2512,
      "shut": 2513,
      "prov": 2514,
      "flu": 2515,
      "fancy": 2516,
      ",—": 2517,
      "mat": 2518,
      "accept": 2519,
      "ships": 2520,
      "faint": 2521,
      "Queen": 2522,
      "bridge": 2523,
      "Bas": 2524,
      "sick": 2525,
      "aming": 2526,
      "agree": 2527,
      "comb": 2528,
      "Amer": 2529,
      "EN": 2530,
      "bent": 2531,
      "rope": 2532,
      "impossible": 2533,
      "mann": 2534,
      "holding": 2535,
      "calm": 2536,
      "liar": 2537,
      "food": 2538,
      "Which": 2539,
      "opin": 2540,
      "appearance": 2541,
      "ences": 2542,
      "star": 2543,
      "stir": 2544,
      "gn": 2545,
      "promise": 2546,
      "Richard": 2547,
      "rate": 2548,
      "snow": 2549,
      "produ": 2550,
      "rang": 2551,
      "duty": 2552,
      "gged": 2553,
      "stout": 2554,
      "cheer": 2555,
      "brow": 2556,
      "fro": 2557,
      "pick": 2558,
      "wed": 2559,
      "unch": 2560,
      "places": 2561,
      "easily": 2562,
      "escape": 2563,
      "Mag": 2564,
      "hate": 2565,
      "lod": 2566,
      "pos": 2567,
      "quired": 2568,
      "burst": 2569,
      "virtue": 2570,
      "excellent": 2571,
      "grief": 2572,
      "Raoul": 2573,
      "cat": 2574,
      "east": 2575,
      "langu": 2576,
      "othy": 2577,
      "rush": 2578,
      "using": 2579,
      "prof": 2580,
      "merry": 2581,
      "Look": 2582,
      "OR": 2583,
      "sens": 2584,
      "thin": 2585,
      "teen": 2586,
      "counter": 2587,
      "talking": 2588,
      "exactly": 2589,
      "makes": 2590,
      "creature": 2591,
      "tongue": 2592,
      "rode": 2593,
      "sugg": 2594,
      "concl": 2595,
      "watched": 2596,
      "visit": 2597,
      "Dorothy": 2598,
      "bore": 2599,
      "clim": 2600,
      "instru": 2601,
      "probably": 2602,
      "Such": 2603,
      "wished": 2604,
      "aston": 2605,
      "grand": 2606,
      "Rochester": 2607,
      "itor": 2608,
      "aff": 2609,
      "empt": 2610,
      "repeated": 2611,
      "Ill": 2612,
      "Mus": 2613,
      "incre": 2614,
      "sigh": 2615,
      "fixed": 2616,
      "corner": 2617,
      "search": 2618,
      "space": 2619,
      "girls": 2620,
      "ES": 2621,
      "wra": 2622,
      "glor": 2623,
      "written": 2624,
      "clouds": 2625,
      "surprise": 2626,
      "bas": 2627,
      "orus": 2628,
      "knowing": 2629,
      "solute": 2630,
      "latter": 2631,
      "whatever": 2632,
      "cher": 2633,
      "fold": 2634,
      "falling": 2635,
      ".,": 2636,
      "Go": 2637,
      "pati": 2638,
      "rust": 2639,
      "ceased": 2640,
      "ali": 2641,
      "loss": 2642,
      "convers": 2643,
      "horses": 2644,
      "reply": 2645,
      "via": 2646,
      "palace": 2647,
      "passage": 2648,
      "Wend": 2649,
      "eping": 2650,
      "waited": 2651,
      "honest": 2652,
      "scarcely": 2653,
      "Dr": 2654,
      "bag": 2655,
      "west": 2656,
      "lower": 2657,
      "confess": 2658,
      "golden": 2659,
      "West": 2660,
      "gment": 2661,
      "luck": 2662,
      "pat": 2663,
      "tw": 2664,
      "ism": 2665,
      "church": 2666,
      "dinner": 2667,
      "relie": 2668,
      "idently": 2669,
      "verse": 2670,
      "Wendy": 2671,
      "00": 2672,
      "bal": 2673,
      "zen": 2674,
      "lives": 2675,
      "sides": 2676,
      "shape": 2677,
      "smiled": 2678,
      "south": 2679,
      "culiar": 2680,
      "occur": 2681,
      "Norna": 2682,
      "cup": 2683,
      "ots": 2684,
      "suggest": 2685,
      "Are": 2686,
      "tide": 2687,
      "peculiar": 2688,
      "els": 2689,
      "prevent": 2690,
      "paper": 2691,
      "ublic": 2692,
      "bly": 2693,
      "fut": 2694,
      "belong": 2695,
      "bul": 2696,
      "pter": 2697,
      "tily": 2698,
      "counten": 2699,
      "degre": 2700,
      "princi": 2701,
      "Basili": 2702,
      "Ab": 2703,
      "Even": 2704,
      "nice": 2705,
      "wret": 2706,
      "une": 2707,
      "Thy": 2708,
      "wouldn": 2709,
      "prove": 2710,
      "Amp": 2711,
      "daw": 2712,
      "killed": 2713,
      "lest": 2714,
      "height": 2715,
      "likely": 2716,
      "crown": 2717,
      "refle": 2718,
      "absolute": 2719,
      "uttered": 2720,
      "pher": 2721,
      "joined": 2722,
      "middle": 2723,
      "Basilius": 2724,
      "Ex": 2725,
      "acle": 2726,
      "grim": 2727,
      "music": 2728,
      "Never": 2729,
      "nur": 2730,
      "nel": 2731,
      "priest": 2732,
      "Bo": 2733,
      "Just": 2734,
      "hun": 2735,
      "coat": 2736,
      "coast": 2737,
      "wear": 2738,
      "preh": 2739,
      "Count": 2740,
      "fill": 2741,
      "asc": 2742,
      "lose": 2743,
      "persu": 2744,
      "mach": 2745,
      "simp": 2746,
      "zing": 2747,
      "sett": 2748,
      "conscious": 2749,
      "spirits": 2750,
      "thoris": 2751,
      "Carthoris": 2752,
      "Amphi": 2753,
      "lu": 2754,
      "tail": 2755,
      "cruel": 2756,
      "hous": 2757,
      "velo": 2758,
      "possib": 2759,
      "Bennet": 2760,
      "conversation": 2761,
      "Ger": 2762,
      "threat": 2763,
      "fol": 2764,
      "III": 2765,
      "bottom": 2766,
      "opinion": 2767,
      "ease": 2768,
      "station": 2769,
      "roof": 2770,
      "apart": 2771,
      "phy": 2772,
      "spoken": 2773,
      "write": 2774,
      "smoke": 2775,
      "shadow": 2776,
      "Fair": 2777,
      "dain": 2778,
      "tin": 2779,
      "guide": 2780,
      "visible": 2781,
      "May": 2782,
      "dart": 2783,
      "eager": 2784,
      "narrow": 2785,
      "anted": 2786,
      "interrup": 2787,
      "Star": 2788,
      "mbled": 2789,
      "dry": 2790,
      "tum": 2791,
      "exist": 2792,
      "ump": 2793,
      "shoulders": 2794,
      "lovely": 2795,
      "garden": 2796,
      "occup": 2797,
      "witness": 2798,
      "breakfast": 2799,
      ";\"": 2800,
      "Troy": 2801,
      "due": 2802,
      "pu": 2803,
      "conne": 2804,
      "emplo": 2805,
      "Amphialus": 2806,
      "inn": 2807,
      "parts": 2808,
      "drawing": 2809,
      "dropped": 2810,
      "Every": 2811,
      "Mer": 2812,
      "Pres": 2813,
      "mi": 2814,
      "mit": 2815,
      "thered": 2816,
      "wore": 2817,
      "discovered": 2818,
      "priv": 2819,
      "servant": 2820,
      "determined": 2821,
      "Illust": 2822,
      "bank": 2823,
      "ên": 2824,
      "gentlemen": 2825,
      "quarter": 2826,
      "fifty": 2827,
      "Sil": 2828,
      "cli": 2829,
      "ell": 2830,
      "eld": 2831,
      "waters": 2832,
      "Chines": 2833,
      "brain": 2834,
      "period": 2835,
      "Troj": 2836,
      "Ad": 2837,
      "flight": 2838,
      "aline": 2839,
      "moving": 2840,
      "pride": 2841,
      "Chinese": 2842,
      "Whale": 2843,
      "bread": 2844,
      "fash": 2845,
      "ified": 2846,
      "cad": 2847,
      "cous": 2848,
      "kis": 2849,
      "receive": 2850,
      "demand": 2851,
      "gover": 2852,
      "Helsing": 2853,
      "Ellaline": 2854,
      "Had": 2855,
      "although": 2856,
      "noticed": 2857,
      "voy": 2858,
      "guest": 2859,
      "wonderful": 2860,
      "boats": 2861,
      "lifted": 2862,
      "succeed": 2863,
      "countenance": 2864,
      "Phy": 2865,
      "ale": 2866,
      "ina": 2867,
      "intell": 2868,
      "allow": 2869,
      "cking": 2870,
      "chest": 2871,
      "surface": 2872,
      "street": 2873,
      "fury": 2874,
      "colour": 2875,
      "bran": 2876,
      "kno": 2877,
      "ler": 2878,
      "wing": 2879,
      "grey": 2880,
      "void": 2881,
      "behold": 2882,
      "sav": 2883,
      "looks": 2884,
      "spear": 2885,
      "admir": 2886,
      "companion": 2887,
      "empty": 2888,
      "houses": 2889,
      "High": 2890,
      "fru": 2891,
      "furn": 2892,
      "weap": 2893,
      "clean": 2894,
      "attend": 2895,
      "steam": 2896,
      "prac": 2897,
      "Mor": 2898,
      "match": 2899,
      "public": 2900,
      "antly": 2901,
      "compl": 2902,
      "angry": 2903,
      "midst": 2904,
      "Pyro": 2905,
      "nal": 2906,
      "ilan": 2907,
      "finding": 2908,
      "finished": 2909,
      "suffic": 2910,
      "leep": 2911,
      "alley": 2912,
      "Pyrocles": 2913,
      "Bing": 2914,
      "Great": 2915,
      "ben": 2916,
      "uni": 2917,
      "exclaimed": 2918,
      "guess": 2919,
      "situ": 2920,
      "Bingley": 2921,
      "tur": 2922,
      "orge": 2923,
      "fet": 2924,
      "teeth": 2925,
      "understood": 2926,
      "sorry": 2927,
      "flowers": 2928,
      "future": 2929,
      "Eu": 2930,
      "Pers": 2931,
      "gest": 2932,
      "jest": 2933,
      "nus": 2934,
      "cean": 2935,
      "unknown": 2936,
      "fee": 2937,
      "awful": 2938,
      "various": 2939,
      "ai": 2940,
      "llis": 2941,
      "terror": 2942,
      "ourselves": 2943,
      "ops": 2944,
      "attered": 2945,
      "waves": 2946,
      "flew": 2947,
      "solemn": 2948,
      "storm": 2949,
      "Jon": 2950,
      "rant": 2951,
      "inqu": 2952,
      "eding": 2953,
      "stain": 2954,
      "wash": 2955,
      "pot": 2956,
      "marry": 2957,
      "dreadful": 2958,
      "Sheriff": 2959,
      "lines": 2960,
      "separ": 2961,
      "noise": 2962,
      "ples": 2963,
      "umph": 2964,
      "buck": 2965,
      "legs": 2966,
      "Mad": 2967,
      "aby": 2968,
      "glance": 2969,
      "happiness": 2970,
      "tale": 2971,
      "fain": 2972,
      "ishing": 2973,
      "employ": 2974,
      "Achill": 2975,
      "Long": 2976,
      "lee": 2977,
      "seized": 2978,
      "liked": 2979,
      "paid": 2980,
      "advant": 2981,
      "surprised": 2982,
      "Ge": 2983,
      "Nay": 2984,
      "Sat": 2985,
      "Ti": 2986,
      "truly": 2987,
      "unity": 2988,
      "ardon": 2989,
      "observed": 2990,
      "supp": 2991,
      "temper": 2992,
      "destroy": 2993,
      "fashion": 2994,
      "Achilles": 2995,
      "dar": 2996,
      "rad": 2997,
      "win": 2998,
      "ancing": 2999,
      "unless": 3000,
      "thank": 3001,
      "offer": 3002,
      "walking": 3003,
      "action": 3004,
      "ork": 3005,
      "ference": 3006,
      "join": 3007,
      "Illustration": 3008,
      ".’": 3009,
      "rever": 3010,
      "ator": 3011,
      "Heli": 3012,
      "grat": 3013,
      "offered": 3014,
      "sco": 3015,
      "itions": 3016,
      "iding": 3017,
      "forced": 3018,
      "Perhaps": 3019,
      "according": 3020,
      "Lucy": 3021,
      "fare": 3022,
      "heap": 3023,
      "sore": 3024,
      "bitter": 3025,
      "powers": 3026,
      ".)": 3027,
      "OU": 3028,
      "arest": 3029,
      "prote": 3030,
      "earnest": 3031,
      "game": 3032,
      "glory": 3033,
      "fles": 3034,
      "skin": 3035,
      "crowd": 3036,
      "Helium": 3037,
      "Stre": 3038,
      "gif": 3039,
      "mast": 3040,
      "alive": 3041,
      "yellow": 3042,
      "mountains": 3043,
      "Huck": 3044,
      "dressed": 3045,
      "nine": 3046,
      "twel": 3047,
      "amid": 3048,
      "poet": 3049,
      "willing": 3050,
      "supposed": 3051,
      "whispered": 3052,
      "Im": 3053,
      "bare": 3054,
      "weight": 3055,
      "foe": 3056,
      "grown": 3057,
      "despair": 3058,
      "hither": 3059,
      "presented": 3060,
      "birth": 3061,
      "evidently": 3062,
      "crossed": 3063,
      "false": 3064,
      "nose": 3065,
      "ener": 3066,
      "llo": 3067,
      "cies": 3068,
      "surround": 3069,
      "assured": 3070,
      "Phyllis": 3071,
      "Hal": 3072,
      "ises": 3073,
      "lls": 3074,
      "affair": 3075,
      "thrown": 3076,
      "touched": 3077,
      "simple": 3078,
      "immediately": 3079,
      "Zaid": 3080,
      "bade": 3081,
      "iter": 3082,
      "promised": 3083,
      "Zaidie": 3084,
      "Chi": 3085,
      "disappeared": 3086,
      "horror": 3087,
      "difficul": 3088,
      "memory": 3089,
      "dwell": 3090,
      "eper": 3091,
      "ience": 3092,
      "rolled": 3093,
      "couldn": 3094,
      "clam": 3095,
      "gs": 3096,
      "mut": 3097,
      "Though": 3098,
      "rud": 3099,
      "range": 3100,
      "greatly": 3101,
      "engaged": 3102,
      "built": 3103,
      "pier": 3104,
      "seas": 3105,
      "moder": 3106,
      "condu": 3107,
      "Scott": 3108,
      "cise": 3109,
      "week": 3110,
      "doors": 3111,
      "nearer": 3112,
      "sisters": 3113,
      "splend": 3114,
      "Fir": 3115,
      "shire": 3116,
      "pocket": 3117,
      "share": 3118,
      "scre": 3119,
      "uded": 3120,
      "safety": 3121,
      "equal": 3122,
      "inj": 3123,
      "asleep": 3124,
      "upper": 3125,
      "justice": 3126,
      "minds": 3127,
      "feelings": 3128,
      "hosp": 3129,
      "cience": 3130,
      "ubb": 3131,
      "arrived": 3132,
      "knees": 3133,
      "Have": 3134,
      "fis": 3135,
      "wro": 3136,
      "sible": 3137,
      "ordered": 3138,
      ",[": 3139,
      "Fl": 3140,
      "rocks": 3141,
      "otherwise": 3142,
      "reading": 3143,
      "queen": 3144,
      "12": 3145,
      "nigh": 3146,
      "pure": 3147,
      "spite": 3148,
      "....": 3149,
      "taste": 3150,
      "prepared": 3151,
      "Ma": 3152,
      "io": 3153,
      "grate": 3154,
      "portion": 3155,
      "craft": 3156,
      "growing": 3157,
      "Brend": 3158,
      "exp": 3159,
      "judge": 3160,
      "leaves": 3161,
      ",’": 3162,
      "catch": 3163,
      "rul": 3164,
      "proved": 3165,
      "tort": 3166,
      "telling": 3167,
      "orders": 3168,
      "thirty": 3169,
      "quietly": 3170,
      "delay": 3171,
      "spr": 3172,
      "hearts": 3173,
      "mission": 3174,
      "matters": 3175,
      "hills": 3176,
      "Redgrave": 3177,
      "settled": 3178,
      "Am": 3179,
      "Was": 3180,
      "zy": 3181,
      "itable": 3182,
      "ressing": 3183,
      "----": 3184,
      "spent": 3185,
      "ignor": 3186,
      "extreme": 3187,
      "Still": 3188,
      "kni": 3189,
      "idorus": 3190,
      "aloud": 3191,
      "liber": 3192,
      "rail": 3193,
      "colle": 3194,
      "fault": 3195,
      "illy": 3196,
      "Musidorus": 3197,
      "twelve": 3198,
      "dig": 3199,
      "names": 3200,
      "vag": 3201,
      "weather": 3202,
      "dete": 3203,
      "caused": 3204,
      "tains": 3205,
      "office": 3206,
      "dangerous": 3207,
      "picture": 3208,
      "circumstances": 3209,
      "Pame": 3210,
      "sme": 3211,
      "rik": 3212,
      "fame": 3213,
      "ption": 3214,
      "windows": 3215,
      "kindness": 3216,
      "triumph": 3217,
      "fighting": 3218,
      "cousin": 3219,
      "Pamela": 3220,
      "conv": 3221,
      "shel": 3222,
      "bott": 3223,
      "creatures": 3224,
      "famous": 3225,
      "remembered": 3226,
      "simply": 3227,
      ".--": 3228,
      "Wick": 3229,
      "enor": 3230,
      "ency": 3231,
      "impress": 3232,
      "kets": 3233,
      "meaning": 3234,
      "fields": 3235,
      "Martian": 3236,
      "10": 3237,
      "Gu": 3238,
      "ky": 3239,
      "cook": 3240,
      "pol": 3241,
      "lack": 3242,
      "woe": 3243,
      "shoot": 3244,
      "questions": 3245,
      "regular": 3246,
      "wounded": 3247,
      "warriors": 3248,
      ",'": 3249,
      "15": 3250,
      "17": 3251,
      "Fix": 3252,
      "Har": 3253,
      "history": 3254,
      "thern": 3255,
      "cial": 3256,
      "grass": 3257,
      "afterwards": 3258,
      "attack": 3259,
      "sooner": 3260,
      "welcome": 3261,
      "Mean": 3262,
      "pulled": 3263,
      "recogn": 3264,
      "Americ": 3265,
      "19": 3266,
      "isn": 3267,
      "enemy": 3268,
      "Like": 3269,
      "Tru": 3270,
      "cow": 3271,
      "rushed": 3272,
      "itary": 3273,
      "sacred": 3274,
      "gel": 3275,
      "preser": 3276,
      "afternoon": 3277,
      "counsel": 3278,
      "hearing": 3279,
      "opening": 3280,
      "marked": 3281,
      "played": 3282,
      "devil": 3283,
      "damsel": 3284,
      "York": 3285,
      "pardon": 3286,
      "wings": 3287,
      "chase": 3288,
      "brown": 3289,
      "judgment": 3290,
      "ternal": 3291,
      "perfectly": 3292,
      "adventure": 3293,
      "important": 3294,
      "Brenda": 3295,
      "trying": 3296,
      "police": 3297,
      "desper": 3298,
      "Mars": 3299,
      "camp": 3300,
      "result": 3301,
      "farther": 3302,
      "talked": 3303,
      "Alas": 3304,
      "iot": 3305,
      "mill": 3306,
      "hesit": 3307,
      "stick": 3308,
      "goes": 3309,
      "greatest": 3310,
      "native": 3311,
      "miss": 3312,
      "Stubb": 3313,
      "Before": 3314,
      "birds": 3315,
      "warrior": 3316,
      "Magnus": 3317,
      "language": 3318,
      "tit": 3319,
      "oris": 3320,
      "wilt": 3321,
      "obli": 3322,
      "letters": 3323,
      "believed": 3324,
      "impati": 3325,
      "fingers": 3326,
      "entirely": 3327,
      "Wood": 3328,
      "ip": 3329,
      "pop": 3330,
      "thinks": 3331,
      "ashing": 3332,
      "forgotten": 3333,
      "advantage": 3334,
      "Ju": 3335,
      "ail": 3336,
      "flying": 3337,
      "gas": 3338,
      "anti": 3339,
      "lift": 3340,
      "conqu": 3341,
      "worn": 3342,
      "keeping": 3343,
      "sym": 3344,
      "posite": 3345,
      "Night": 3346,
      "oh": 3347,
      "gras": 3348,
      "lights": 3349,
      "woods": 3350,
      "couple": 3351,
      "cabin": 3352,
      "private": 3353,
      "Ay": 3354,
      "Cour": 3355,
      "class": 3356,
      "monster": 3357,
      "building": 3358,
      "whales": 3359,
      "glorious": 3360,
      "!—": 3361,
      "Thu": 3362,
      "finite": 3363,
      "North": 3364,
      "harpo": 3365,
      "tender": 3366,
      "fulness": 3367,
      "throat": 3368,
      "degree": 3369,
      "Bal": 3370,
      "Bur": 3371,
      "Erik": 3372,
      "RE": 3373,
      "Ri": 3374,
      "crying": 3375,
      "eque": 3376,
      "kins": 3377,
      "stars": 3378,
      "bearing": 3379,
      "unic": 3380,
      "peror": 3381,
      "whence": 3382,
      "ruin": 3383,
      "cian": 3384,
      "ughters": 3385,
      "doesn": 3386,
      "Queeque": 3387,
      "Queequeg": 3388,
      "16": 3389,
      "AT": 3390,
      "named": 3391,
      "vig": 3392,
      "feast": 3393,
      "faces": 3394,
      "forehead": 3395,
      "ached": 3396,
      "desp": 3397,
      "Greece": 3398,
      "Shall": 3399,
      "ocean": 3400,
      "py": 3401,
      "yard": 3402,
      "inside": 3403,
      "aside": 3404,
      "cool": 3405,
      "ically": 3406,
      "shalt": 3407,
      "gled": 3408,
      "report": 3409,
      "laughing": 3410,
      "books": 3411,
      "suspic": 3412,
      "ae": 3413,
      "uc": 3414,
      "leas": 3415,
      "meeting": 3416,
      "apparent": 3417,
      "shouted": 3418,
      "expression": 3419,
      "Steing": 3420,
      "Pl": 3421,
      "meat": 3422,
      "lion": 3423,
      "terri": 3424,
      "resp": 3425,
      "marve": 3426,
      "listened": 3427,
      "instantly": 3428,
      "Steingall": 3429,
      "Dev": 3430,
      "hest": 3431,
      "worst": 3432,
      "papers": 3433,
      "bird": 3434,
      "voyage": 3435,
      "Two": 3436,
      "Take": 3437,
      "bones": 3438,
      "fli": 3439,
      "mous": 3440,
      "rors": 3441,
      "haven": 3442,
      "notice": 3443,
      "consequ": 3444,
      "exe": 3445,
      "yours": 3446,
      "event": 3447,
      "sounds": 3448,
      "frequ": 3449,
      "decided": 3450,
      "Mary": 3451,
      "valley": 3452,
      "ann": 3453,
      "beam": 3454,
      "imper": 3455,
      "exer": 3456,
      "opport": 3457,
      "ively": 3458,
      "servants": 3459,
      "generally": 3460,
      "royal": 3461,
      "mistress": 3462,
      "thrust": 3463,
      "dawn": 3464,
      "sin": 3465,
      "forty": 3466,
      "Master": 3467,
      "bers": 3468,
      "rand": 3469,
      "ral": 3470,
      "sink": 3471,
      "influ": 3472,
      "revenge": 3473,
      "arr": 3474,
      "wicked": 3475,
      "weary": 3476,
      "feared": 3477,
      "shining": 3478,
      "opposite": 3479,
      "desired": 3480,
      "horrible": 3481,
      "Mina": 3482,
      "experience": 3483,
      "IV": 3484,
      "yards": 3485,
      "wasn": 3486,
      "Nothing": 3487,
      "flood": 3488,
      "village": 3489,
      "folk": 3490,
      "tes": 3491,
      "inhabit": 3492,
      "stones": 3493,
      "cost": 3494,
      "bles": 3495,
      "mounted": 3496,
      "imagine": 3497,
      "!--": 3498,
      "Bes": 3499,
      "ba": 3500,
      "vy": 3501,
      "orous": 3502,
      "watching": 3503,
      "haste": 3504,
      "AL": 3505,
      "slo": 3506,
      "oned": 3507,
      "tore": 3508,
      "stem": 3509,
      "arks": 3510,
      "square": 3511,
      "flame": 3512,
      "embra": 3513,
      "support": 3514,
      "writing": 3515,
      "effort": 3516,
      "amongst": 3517,
      "needs": 3518,
      "stepped": 3519,
      "hurried": 3520,
      "Presently": 3521,
      "Silver": 3522,
      "kissed": 3523,
      "Again": 3524,
      "altogether": 3525,
      "wet": 3526,
      "compar": 3527,
      "bling": 3528,
      "consent": 3529,
      "surely": 3530,
      "runk": 3531,
      "gather": 3532,
      "vision": 3533,
      "magn": 3534,
      "resolved": 3535,
      "Martians": 3536,
      "bbed": 3537,
      "ize": 3538,
      "swell": 3539,
      "seated": 3540,
      "cting": 3541,
      "teach": 3542,
      "worship": 3543,
      "ounced": 3544,
      "preci": 3545,
      "begun": 3546,
      "dying": 3547,
      "intellig": 3548,
      "flesh": 3549,
      "First": 3550,
      "Mert": 3551,
      "equ": 3552,
      "mour": 3553,
      "mile": 3554,
      "pin": 3555,
      "reed": 3556,
      "sacri": 3557,
      "omen": 3558,
      "civ": 3559,
      "distur": 3560,
      "fleet": 3561,
      "pieces": 3562,
      "Paris": 3563,
      "difficult": 3564,
      "twice": 3565,
      "extraordinary": 3566,
      "American": 3567,
      "Mertoun": 3568,
      "lone": 3569,
      "pill": 3570,
      "pack": 3571,
      "pounds": 3572,
      "resist": 3573,
      "woke": 3574,
      "tical": 3575,
      "stands": 3576,
      "rested": 3577,
      "osity": 3578,
      "explained": 3579,
      "gers": 3580,
      "lance": 3581,
      "zu": 3582,
      "nod": 3583,
      "allowed": 3584,
      "hotel": 3585,
      "slept": 3586,
      "acquaint": 3587,
      "wrote": 3588,
      "bay": 3589,
      "bull": 3590,
      "fought": 3591,
      "vious": 3592,
      "issu": 3593,
      "stage": 3594,
      "chant": 3595,
      "tered": 3596,
      "explo": 3597,
      "tea": 3598,
      "hole": 3599,
      "supper": 3600,
      "putting": 3601,
      "daughters": 3602,
      "praise": 3603,
      "iliar": 3604,
      "ahead": 3605,
      "ome": 3606,
      "unning": 3607,
      "tied": 3608,
      "abs": 3609,
      "udd": 3610,
      "pace": 3611,
      "Only": 3612,
      "finally": 3613,
      "drop": 3614,
      "summer": 3615,
      "satisfied": 3616,
      "AS": 3617,
      "Chall": 3618,
      "Father": 3619,
      "Waz": 3620,
      "aud": 3621,
      "iety": 3622,
      "vity": 3623,
      "seless": 3624,
      "handsome": 3625,
      "Ku": 3626,
      "gray": 3627,
      "months": 3628,
      "shade": 3629,
      "situation": 3630,
      "Wazir": 3631,
      "Dra": 3632,
      "gin": 3633,
      "iers": 3634,
      "resu": 3635,
      "sty": 3636,
      "whist": 3637,
      "alous": 3638,
      "rable": 3639,
      "whil": 3640,
      "appointed": 3641,
      "assist": 3642,
      "carrying": 3643,
      "Once": 3644,
      "drove": 3645,
      "fellows": 3646,
      "AND": 3647,
      "Scot": 3648,
      "German": 3649,
      "knife": 3650,
      "iam": 3651,
      "wake": 3652,
      "reve": 3653,
      "lighted": 3654,
      "trembling": 3655,
      "aware": 3656,
      "Challenger": 3657,
      "jum": 3658,
      "stuff": 3659,
      "working": 3660,
      "sprang": 3661,
      "Char": 3662,
      "steel": 3663,
      "More": 3664,
      "finger": 3665,
      "hidden": 3666,
      "mate": 3667,
      "ws": 3668,
      "arose": 3669,
      "usually": 3670,
      "shop": 3671,
      "works": 3672,
      "igned": 3673,
      "cries": 3674,
      "Hu": 3675,
      "Sum": 3676,
      "Scare": 3677,
      "rese": 3678,
      "llen": 3679,
      "shepher": 3680,
      "proof": 3681,
      "distinct": 3682,
      "Arcad": 3683,
      "Sea": 3684,
      "Prince": 3685,
      "stayed": 3686,
      "trans": 3687,
      "Persian": 3688,
      "Scarecrow": 3689,
      "13": 3690,
      "dess": 3691,
      "oper": 3692,
      "sell": 3693,
      "ilar": 3694,
      "cave": 3695,
      "wholly": 3696,
      "Those": 3697,
      "carefully": 3698,
      "familiar": 3699,
      "fortunate": 3700,
      "imagination": 3701,
      "burning": 3702,
      "anxious": 3703,
      "ker": 3704,
      "theless": 3705,
      "lock": 3706,
      "holy": 3707,
      "travel": 3708,
      "vile": 3709,
      "higher": 3710,
      "address": 3711,
      "sleeping": 3712,
      "strike": 3713,
      "circle": 3714,
      "divine": 3715,
      "enormous": 3716,
      "jah": 3717,
      "withal": 3718,
      "disdain": 3719,
      "desir": 3720,
      "singular": 3721,
      "Chapter": 3722,
      "_Astr": 3723,
      "neighbour": 3724,
      "wretched": 3725,
      "savage": 3726,
      "Hark": 3727,
      "TO": 3728,
      "cil": 3729,
      "dance": 3730,
      "gan": 3731,
      "jaw": 3732,
      "itation": 3733,
      "saved": 3734,
      "tering": 3735,
      "onef": 3736,
      "plate": 3737,
      "wherein": 3738,
      "voices": 3739,
      "engine": 3740,
      "double": 3741,
      "bestow": 3742,
      "_Astronef": 3743,
      "Trist": 3744,
      "Ud": 3745,
      "gress": 3746,
      "hence": 3747,
      "kiss": 3748,
      "mess": 3749,
      "ingu": 3750,
      "estate": 3751,
      "intro": 3752,
      "gathered": 3753,
      "queer": 3754,
      "Phileas": 3755,
      "Very": 3756,
      "dish": 3757,
      "sca": 3758,
      "uf": 3759,
      "isto": 3760,
      "beard": 3761,
      "immortal": 3762,
      "locked": 3763,
      "uses": 3764,
      "fail": 3765,
      "sphere": 3766,
      "discover": 3767,
      "precious": 3768,
      "mercy": 3769,
      "singing": 3770,
      "skill": 3771,
      "careful": 3772,
      "points": 3773,
      "custom": 3774,
      "Trojan": 3775,
      "Would": 3776,
      "heat": 3777,
      "whir": 3778,
      "roll": 3779,
      "shri": 3780,
      "pause": 3781,
      "calling": 3782,
      "ferred": 3783,
      "pipe": 3784,
      "crim": 3785,
      "Tristram": 3786,
      "introdu": 3787,
      "een": 3788,
      "mater": 3789,
      "inno": 3790,
      "alas": 3791,
      "ading": 3792,
      "tie": 3793,
      "White": 3794,
      "gives": 3795,
      "faithful": 3796,
      "study": 3797,
      "merely": 3798,
      "mentioned": 3799,
      "difficulty": 3800,
      "Aj": 3801,
      "Dou": 3802,
      "Wor": 3803,
      "flies": 3804,
      "inward": 3805,
      "indic": 3806,
      "perceived": 3807,
      "hollow": 3808,
      "tors": 3809,
      "absolutely": 3810,
      "darling": 3811,
      "14": 3812,
      "Tell": 3813,
      "ende": 3814,
      "ama": 3815,
      "centre": 3816,
      "slave": 3817,
      "officers": 3818,
      "refused": 3819,
      "MS": 3820,
      "rare": 3821,
      "abl": 3822,
      "cts": 3823,
      "counted": 3824,
      "distingu": 3825,
      "condition": 3826,
      "taught": 3827,
      "subst": 3828,
      "cliff": 3829,
      "opportunity": 3830,
      "Till": 3831,
      "loose": 3832,
      "tian": 3833,
      "failed": 3834,
      "arts": 3835,
      "rum": 3836,
      "desert": 3837,
      "size": 3838,
      "wheel": 3839,
      "IL": 3840,
      "Je": 3841,
      "athan": 3842,
      "lted": 3843,
      "inform": 3844,
      "attra": 3845,
      "tomb": 3846,
      "owing": 3847,
      "soever": 3848,
      "unhappy": 3849,
      "shine": 3850,
      "preva": 3851,
      "brand": 3852,
      "magic": 3853,
      "approached": 3854,
      "fatal": 3855,
      "athed": 3856,
      "bottle": 3857,
      "Ty": 3858,
      "ana": 3859,
      "anch": 3860,
      "request": 3861,
      "keen": 3862,
      "tire": 3863,
      "gling": 3864,
      "grant": 3865,
      "cheeks": 3866,
      "smiling": 3867,
      "happen": 3868,
      "tower": 3869,
      "driven": 3870,
      "satisfa": 3871,
      "modern": 3872,
      "25": 3873,
      "Each": 3874,
      "dull": 3875,
      "gay": 3876,
      "oil": 3877,
      "health": 3878,
      "ulous": 3879,
      "thyself": 3880,
      "carriage": 3881,
      "rooms": 3882,
      "graph": 3883,
      "male": 3884,
      "interesting": 3885,
      "Indian": 3886,
      "labour": 3887,
      "Jonathan": 3888,
      "_Astronef_": 3889,
      "Hast": 3890,
      "ias": 3891,
      "level": 3892,
      "rip": 3893,
      "odd": 3894,
      "thouse": 3895,
      "hopes": 3896,
      "month": 3897,
      "advanced": 3898,
      "prize": 3899,
      "drive": 3900,
      "stretched": 3901,
      "itchen": 3902,
      "existence": 3903,
      "Din": 3904,
      "La": 3905,
      "gue": 3906,
      "arti": 3907,
      "ains": 3908,
      "complain": 3909,
      "hoped": 3910,
      "vict": 3911,
      "considerable": 3912,
      "ING": 3913,
      "troops": 3914,
      "original": 3915,
      "splendid": 3916,
      "27": 3917,
      "cere": 3918,
      "cunning": 3919,
      "dost": 3920,
      "bodies": 3921,
      "excite": 3922,
      "soldiers": 3923,
      "candle": 3924,
      "George": 3925,
      "Knight": 3926,
      "avoid": 3927,
      "gates": 3928,
      "iest": 3929,
      "tun": 3930,
      "islands": 3931,
      "iry": 3932,
      "terday": 3933,
      "del": 3934,
      "iles": 3935,
      "cler": 3936,
      "serious": 3937,
      "steep": 3938,
      "smooth": 3939,
      "Street": 3940,
      "James": 3941,
      "grou": 3942,
      "swords": 3943,
      "thri": 3944,
      "agreed": 3945,
      "somewhere": 3946,
      "acy": 3947,
      "miserable": 3948,
      "score": 3949,
      "Brit": 3950,
      "enced": 3951,
      "argu": 3952,
      "aller": 3953,
      "posing": 3954,
      "doom": 3955,
      "accompl": 3956,
      "handed": 3957,
      "sons": 3958,
      "astern": 3959,
      "whilst": 3960,
      "Cast": 3961,
      "XV": 3962,
      "bill": 3963,
      "ires": 3964,
      "swall": 3965,
      "inced": 3966,
      "requ": 3967,
      "toss": 3968,
      "army": 3969,
      "deb": 3970,
      "scri": 3971,
      "advance": 3972,
      "signal": 3973,
      "Coll": 3974,
      "Pri": 3975,
      "hell": 3976,
      "ione": 3977,
      "spare": 3978,
      "confidence": 3979,
      "listen": 3980,
      "wounds": 3981,
      "superior": 3982,
      "furious": 3983,
      "occurred": 3984,
      "bree": 3985,
      "bark": 3986,
      "encounter": 3987,
      "stup": 3988,
      "cell": 3989,
      "features": 3990,
      "Three": 3991,
      "accompan": 3992,
      "midnight": 3993,
      "comfortable": 3994,
      "delivered": 3995,
      "Time": 3996,
      "Wickham": 3997,
      "OO": 3998,
      "Pall": 3999,
      "kitchen": 4000,
      "infer": 4001,
      "ourable": 4002,
      "ighest": 4003,
      "izon": 4004,
      "persons": 4005,
      "wisdom": 4006,
      "Gaw": 4007,
      "lat": 4008,
      "reward": 4009,
      "ables": 4010,
      "suit": 4011,
      "oted": 4012,
      "grad": 4013,
      "minded": 4014,
      "gram": 4015,
      "However": 4016,
      "descend": 4017,
      "Emperor": 4018,
      "yonder": 4019,
      "Starbuck": 4020,
      "30": 4021,
      "Yü": 4022,
      "dared": 4023,
      "foul": 4024,
      "nobody": 4025,
      "entrance": 4026,
      "hadn": 4027,
      "oked": 4028,
      "blows": 4029,
      "betray": 4030,
      "interval": 4031,
      "choice": 4032,
      "Greeks": 4033,
      "contrary": 4034,
      "sufficient": 4035,
      "Gawain": 4036,
      "Br": 4037,
      "lass": 4038,
      "naked": 4039,
      "—“": 4040,
      "thither": 4041,
      "staff": 4042,
      "roman": 4043,
      "bride": 4044,
      "curi": 4045,
      "smote": 4046,
      "considered": 4047,
      "laws": 4048,
      "movement": 4049,
      "proceeded": 4050,
      "desperate": 4051,
      "absence": 4052,
      "Collins": 4053,
      "East": 4054,
      "Pat": 4055,
      "gently": 4056,
      "atmo": 4057,
      "atic": 4058,
      "metal": 4059,
      "skies": 4060,
      "streets": 4061,
      "mysterious": 4062,
      "Tor": 4063,
      "base": 4064,
      "fond": 4065,
      "lamp": 4066,
      "ox": 4067,
      "meas": 4068,
      "ribut": 4069,
      "shaft": 4070,
      "flat": 4071,
      "trem": 4072,
      "swept": 4073,
      "groan": 4074,
      "animal": 4075,
      "grateful": 4076,
      "Udaller": 4077,
      "Bun": 4078,
      "rous": 4079,
      "task": 4080,
      "thed": 4081,
      "wixt": 4082,
      "irk": 4083,
      "thence": 4084,
      "brea": 4085,
      "friendship": 4086,
      "gging": 4087,
      "pointing": 4088,
      "descended": 4089,
      "depend": 4090,
      "respond": 4091,
      "echo": 4092,
      "asha": 4093,
      "immen": 4094,
      "agger": 4095,
      "rule": 4096,
      "actually": 4097,
      "frightened": 4098,
      "manners": 4099,
      "interrupted": 4100,
      "fruit": 4101,
      "Zet": 4102,
      "lust": 4103,
      "yer": 4104,
      "relig": 4105,
      "measure": 4106,
      "China": 4107,
      "jealous": 4108,
      "brothers": 4109,
      "accident": 4110,
      "excited": 4111,
      "branches": 4112,
      "hospital": 4113,
      "Besides": 4114,
      "ceremon": 4115,
      "Zetland": 4116,
      "slay": 4117,
      "arily": 4118,
      "waste": 4119,
      "forms": 4120,
      "cia": 4121,
      "horizon": 4122,
      "plainly": 4123,
      "communic": 4124,
      "liter": 4125,
      "Quoth": 4126,
      "departed": 4127,
      "acquaintance": 4128,
      "beheld": 4129,
      "convey": 4130,
      "Indeed": 4131,
      "everybody": 4132,
      "buried": 4133,
      "drown": 4134,
      "prisoner": 4135,
      "pine": 4136,
      "edd": 4137,
      "demon": 4138,
      "hore": 4139,
      "bosom": 4140,
      "flung": 4141,
      "Death": 4142,
      "leaped": 4143,
      "possibly": 4144,
      "execut": 4145,
      "Has": 4146,
      "liness": 4147,
      "omy": 4148,
      "pron": 4149,
      "fix": 4150,
      "powerful": 4151,
      "busy": 4152,
      "shadows": 4153,
      "destru": 4154,
      "yesterday": 4155,
      "blessed": 4156,
      "Ca": 4157,
      "Col": 4158,
      "Jim": 4159,
      "highest": 4160,
      "ien": 4161,
      "vest": 4162,
      "wer": 4163,
      "rec": 4164,
      "recei": 4165,
      "ese": 4166,
      "lip": 4167,
      "essie": 4168,
      "foreign": 4169,
      "plent": 4170,
      "taining": 4171,
      "lightning": 4172,
      "kindly": 4173,
      "helm": 4174,
      "heavens": 4175,
      "difference": 4176,
      "similar": 4177,
      "slip": 4178,
      "rapidly": 4179,
      "fisher": 4180,
      "Gl": 4181,
      "Since": 4182,
      "Ten": 4183,
      "a_": 4184,
      "oo": 4185,
      "winter": 4186,
      "ander": 4187,
      "explan": 4188,
      "marble": 4189,
      "summon": 4190,
      "Dejah": 4191,
      "princess": 4192,
      "Shan": 4193,
      "hanging": 4194,
      "guns": 4195,
      "relief": 4196,
      "Shor": 4197,
      "Saint": 4198,
      "reser": 4199,
      "Thoris": 4200,
      "ieur": 4201,
      "umb": 4202,
      "helped": 4203,
      "grie": 4204,
      "fifteen": 4205,
      "approaching": 4206,
      "agreeable": 4207,
      "puzz": 4208,
      "Hill": 4209,
      "pest": 4210,
      "sour": 4211,
      "ashes": 4212,
      "inging": 4213,
      "estern": 4214,
      "beha": 4215,
      "tight": 4216,
      "compe": 4217,
      "ountain": 4218,
      "stock": 4219,
      "tails": 4220,
      "remains": 4221,
      "companions": 4222,
      "violence": 4223,
      "detective": 4224,
      "influence": 4225,
      "ashamed": 4226,
      "sway": 4227,
      "tho": 4228,
      "invent": 4229,
      "vere": 4230,
      "prey": 4231,
      "wondr": 4232,
      "generous": 4233,
      "signs": 4234,
      "interested": 4235,
      "borne": 4236,
      "Hans": 4237,
      "Kal": 4238,
      "South": 4239,
      "uted": 4240,
      "ranc": 4241,
      "tically": 4242,
      "cursed": 4243,
      "Woodman": 4244,
      "curiosity": 4245,
      "23": 4246,
      "?--": 4247,
      "Sy": 4248,
      "apo": 4249,
      "bon": 4250,
      "kin": 4251,
      "pse": 4252,
      "sire": 4253,
      "record": 4254,
      "lier": 4255,
      "liest": 4256,
      "poison": 4257,
      "Through": 4258,
      "tear": 4259,
      "hop": 4260,
      "omer": 4261,
      "cheek": 4262,
      "paused": 4263,
      "phon": 4264,
      "fearful": 4265,
      "rupt": 4266,
      "Shorthouse": 4267,
      "Di": 4268,
      "Tur": 4269,
      "nment": 4270,
      "iny": 4271,
      "remo": 4272,
      "rejo": 4273,
      "meal": 4274,
      "ads": 4275,
      "dia": 4276,
      "missed": 4277,
      "bows": 4278,
      "commanded": 4279,
      "example": 4280,
      "foolish": 4281,
      "Philan": 4282,
      "combat": 4283,
      "Halcro": 4284,
      "immense": 4285,
      "Philanax": 4286,
      "drank": 4287,
      "fed": 4288,
      "lam": 4289,
      "phi": 4290,
      "silly": 4291,
      "ange": 4292,
      "asking": 4293,
      "quod": 4294,
      "process": 4295,
      "ranged": 4296,
      "hastily": 4297,
      "thorough": 4298,
      "adventures": 4299,
      "Lydia": 4300,
      "Scotland": 4301,
      "anchor": 4302,
      "fy": 4303,
      "reas": 4304,
      "shown": 4305,
      "exha": 4306,
      "armour": 4307,
      "choose": 4308,
      "Pequod": 4309,
      "princes": 4310,
      "arrival": 4311,
      "suffered": 4312,
      "escaped": 4313,
      "described": 4314,
      "senses": 4315,
      "title": 4316,
      "wondrous": 4317,
      "ride": 4318,
      "vous": 4319,
      "represent": 4320,
      "fears": 4321,
      "worked": 4322,
      "stoop": 4323,
      "kings": 4324,
      "viv": 4325,
      "showing": 4326,
      "Because": 4327,
      "century": 4328,
      "hurry": 4329,
      "personal": 4330,
      "Herm": 4331,
      "burden": 4332,
      "capable": 4333,
      "authority": 4334,
      "popular": 4335,
      "endeav": 4336,
      ",)": 4337,
      "Gard": 4338,
      "aught": 4339,
      "lun": 4340,
      "mas": 4341,
      "erous": 4342,
      "seam": 4343,
      "aling": 4344,
      "loving": 4345,
      "thanks": 4346,
      "partly": 4347,
      "ints": 4348,
      "intended": 4349,
      "treasure": 4350,
      "daily": 4351,
      "heavenly": 4352,
      "naturally": 4353,
      "dreams": 4354,
      "beasts": 4355,
      "bbing": 4356,
      "Black": 4357,
      "Fri": 4358,
      "Gy": 4359,
      "Kor": 4360,
      "ST": 4361,
      "_E": 4362,
      "vert": 4363,
      "cture": 4364,
      "sheep": 4365,
      "anyone": 4366,
      "prepar": 4367,
      "Joe": 4368,
      "deadly": 4369,
      "corre": 4370,
      "playing": 4371,
      "secure": 4372,
      "prayed": 4373,
      "violent": 4374,
      "patient": 4375,
      "jesty": 4376,
      "Hermione": 4377,
      "Cf": 4378,
      "Him": 4379,
      "jun": 4380,
      "lof": 4381,
      "pisto": 4382,
      "wealth": 4383,
      "notes": 4384,
      "compass": 4385,
      "compreh": 4386,
      "somehow": 4387,
      "anybody": 4388,
      "observ": 4389,
      "deeds": 4390,
      "chosen": 4391,
      "bowed": 4392,
      "squire": 4393,
      "dogs": 4394,
      "stroke": 4395,
      "practi": 4396,
      "Devar": 4397,
      "destruction": 4398,
      "Tzu": 4399,
      "ancy": 4400,
      "ashore": 4401,
      "rolling": 4402,
      "soom": 4403,
      "wept": 4404,
      "asty": 4405,
      "blew": 4406,
      "clus": 4407,
      "goodness": 4408,
      "betwixt": 4409,
      "ensive": 4410,
      "accus": 4411,
      "departure": 4412,
      "Barsoom": 4413,
      "slipped": 4414,
      "swiftly": 4415,
      "principal": 4416,
      "succeeded": 4417,
      "Harker": 4418,
      "accompanied": 4419,
      "Ple": 4420,
      "bone": 4421,
      "sank": 4422,
      "vation": 4423,
      "tori": 4424,
      "roar": 4425,
      "bye": 4426,
      "overcome": 4427,
      "parted": 4428,
      "scorn": 4429,
      "silk": 4430,
      "shock": 4431,
      "fairly": 4432,
      "possession": 4433,
      "Helen": 4434,
      "produced": 4435,
      "picked": 4436,
      "nurse": 4437,
      "Europe": 4438,
      "29": 4439,
      "Budd": 4440,
      "Hen": 4441,
      "bing": 4442,
      "ee": 4443,
      "jac": 4444,
      "snat": 4445,
      "invol": 4446,
      "lover": 4447,
      "mood": 4448,
      "peril": 4449,
      "turns": 4450,
      "friendly": 4451,
      "ension": 4452,
      "transl": 4453,
      "excuse": 4454,
      "delighted": 4455,
      "limbs": 4456,
      "animals": 4457,
      "hideous": 4458,
      "occupied": 4459,
      "victim": 4460,
      "atmosphere": 4461,
      "\";": 4462,
      "20": 4463,
      "Say": 4464,
      "Ven": 4465,
      "meth": 4466,
      "alarm": 4467,
      "laughter": 4468,
      "tele": 4469,
      "rude": 4470,
      "spake": 4471,
      "whereupon": 4472,
      "wont": 4473,
      "events": 4474,
      "moments": 4475,
      "possessed": 4476,
      "phys": 4477,
      "exhaust": 4478,
      "Ed": 4479,
      "Hsi": 4480,
      "farm": 4481,
      "nasty": 4482,
      "tent": 4483,
      "hea": 4484,
      "unted": 4485,
      "sails": 4486,
      "weeping": 4487,
      "shed": 4488,
      "obed": 4489,
      "calls": 4490,
      "tingham": 4491,
      "mischief": 4492,
      "ushing": 4493,
      "Nottingham": 4494,
      "riding": 4495,
      "leading": 4496,
      "swim": 4497,
      "recolle": 4498,
      "Cer": 4499,
      "RO": 4500,
      "enem": 4501,
      "acknow": 4502,
      "emer": 4503,
      "cloth": 4504,
      "belief": 4505,
      "earthly": 4506,
      "metas": 4507,
      "utterly": 4508,
      "Whose": 4509,
      "listening": 4510,
      "wishes": 4511,
      "Dametas": 4512,
      "weapon": 4513,
      "Summer": 4514,
      "Bunce": 4515,
      "Sud": 4516,
      "pushed": 4517,
      "revol": 4518,
      "vering": 4519,
      "lightly": 4520,
      "fires": 4521,
      "swear": 4522,
      "bury": 4523,
      "throne": 4524,
      "brief": 4525,
      "deserted": 4526,
      "completely": 4527,
      "wrath": 4528,
      "machine": 4529,
      "EL": 4530,
      "Oper": 4531,
      "eternal": 4532,
      "rear": 4533,
      "season": 4534,
      "coll": 4535,
      "conven": 4536,
      "afford": 4537,
      "pled": 4538,
      "whereof": 4539,
      "profess": 4540,
      "appears": 4541,
      "ggle": 4542,
      "troubled": 4543,
      "brill": 4544,
      "leaned": 4545,
      "constant": 4546,
      "railway": 4547,
      "vague": 4548,
      "24": 4549,
      "28": 4550,
      "Senter": 4551,
      "Spir": 4552,
      "coal": 4553,
      "fax": 4554,
      "wol": 4555,
      "progress": 4556,
      "Therefore": 4557,
      "Chief": 4558,
      "message": 4559,
      "mystery": 4560,
      "Grecian": 4561,
      "society": 4562,
      "suggested": 4563,
      "Thuvia": 4564,
      "Ano": 4565,
      "Mac": 4566,
      "Oz": 4567,
      "pour": 4568,
      "rim": 4569,
      "êng": 4570,
      "an_": 4571,
      "indif": 4572,
      "boast": 4573,
      "reader": 4574,
      "nae": 4575,
      "treat": 4576,
      "horrid": 4577,
      "awake": 4578,
      "gotten": 4579,
      "wants": 4580,
      "sounded": 4581,
      "doubted": 4582,
      "resolution": 4583,
      "rushing": 4584,
      "resumed": 4585,
      "Sudden": 4586,
      "Opera": 4587,
      "Sid": 4588,
      "tour": 4589,
      "wre": 4590,
      "whit": 4591,
      "veil": 4592,
      "alle": 4593,
      "weeks": 4594,
      "special": 4595,
      "maj": 4596,
      "tempest": 4597,
      "gaze": 4598,
      "goddess": 4599,
      "bringing": 4600,
      "conduct": 4601,
      "apparently": 4602,
      "excitement": 4603,
      "eddak": 4604,
      "Jack": 4605,
      "_I": 4606,
      "dressing": 4607,
      "ners": 4608,
      "pent": 4609,
      "regre": 4610,
      "forbid": 4611,
      "hers": 4612,
      "raise": 4613,
      "weigh": 4614,
      "ify": 4615,
      "design": 4616,
      "Chris": 4617,
      "warning": 4618,
      "honor": 4619,
      "strug": 4620,
      "driver": 4621,
      "mistake": 4622,
      "concerning": 4623,
      "directly": 4624,
      "Cla": 4625,
      "Far": 4626,
      "cart": 4627,
      "lament": 4628,
      "takes": 4629,
      "stal": 4630,
      "melan": 4631,
      "logy": 4632,
      "necia": 4633,
      "iel": 4634,
      "plun": 4635,
      "parting": 4636,
      "lessly": 4637,
      "flames": 4638,
      "attle": 4639,
      "jected": 4640,
      "solid": 4641,
      "marks": 4642,
      "prayer": 4643,
      "gained": 4644,
      "particularly": 4645,
      "surrounded": 4646,
      "Gynecia": 4647,
      "enemies": 4648,
      "melancho": 4649,
      "Clif": 4650,
      "Homer": 4651,
      "wave": 4652,
      "yach": 4653,
      "removed": 4654,
      "required": 4655,
      "acious": 4656,
      "Ital": 4657,
      "stories": 4658,
      "emp": 4659,
      "minister": 4660,
      "evidence": 4661,
      "returning": 4662,
      "younger": 4663,
      "cured": 4664,
      "exceed": 4665,
      "David": 4666,
      "Troil": 4667,
      "convinced": 4668,
      "Castle": 4669,
      "Clifford": 4670,
      "Give": 4671,
      "oe": 4672,
      "assure": 4673,
      "fever": 4674,
      "amaz": 4675,
      "prospect": 4676,
      "advice": 4677,
      "Any": 4678,
      "Doll": 4679,
      "frame": 4680,
      "vanished": 4681,
      "Having": 4682,
      "increased": 4683,
      "civil": 4684,
      "Another": 4685,
      "Pal": 4686,
      "Scar": 4687,
      "mates": 4688,
      "iner": 4689,
      "istic": 4690,
      "asing": 4691,
      "stiff": 4692,
      "wid": 4693,
      "alter": 4694,
      "raged": 4695,
      "shone": 4696,
      "ability": 4697,
      "therein": 4698,
      "shake": 4699,
      "breaking": 4700,
      "winds": 4701,
      "strangers": 4702,
      "falls": 4703,
      "gazed": 4704,
      "wondered": 4705,
      "needed": 4706,
      "Hook": 4707,
      "reckon": 4708,
      "About": 4709,
      "lofty": 4710,
      "melancholy": 4711,
      "Mic": 4712,
      "Tao": 4713,
      "WH": 4714,
      "rat": 4715,
      "ume": 4716,
      "inf": 4717,
      "hael": 4718,
      "chi": 4719,
      "rig": 4720,
      "store": 4721,
      "discus": 4722,
      "setting": 4723,
      "engers": 4724,
      "misery": 4725,
      "addressed": 4726,
      "charged": 4727,
      "liberty": 4728,
      "coward": 4729,
      "breathing": 4730,
      "Summerlee": 4731,
      "mild": 4732,
      "oath": 4733,
      "soil": 4734,
      "locks": 4735,
      "conde": 4736,
      "dozen": 4737,
      "blame": 4738,
      "touching": 4739,
      "quarters": 4740,
      "knee": 4741,
      "Earl": 4742,
      "concerned": 4743,
      "soldier": 4744,
      "heroes": 4745,
      "apartment": 4746,
      "elder": 4747,
      "Apo": 4748,
      "LA": 4749,
      "nin": 4750,
      "rout": 4751,
      "uries": 4752,
      "ouch": 4753,
      "reign": 4754,
      "aspect": 4755,
      "alo": 4756,
      "appoint": 4757,
      "appreh": 4758,
      "flash": 4759,
      "intim": 4760,
      "shoes": 4761,
      "valiant": 4762,
      "figures": 4763,
      "pictures": 4764,
      "astonishment": 4765,
      "connected": 4766,
      "sympa": 4767,
      "magnific": 4768,
      "egg": 4769,
      "hated": 4770,
      "pac": 4771,
      "sung": 4772,
      "tole": 4773,
      "ishop": 4774,
      "hap": 4775,
      "agon": 4776,
      "faced": 4777,
      "acles": 4778,
      "chain": 4779,
      "delightful": 4780,
      "regarded": 4781,
      "declared": 4782,
      "lonely": 4783,
      "jumped": 4784,
      "26": 4785,
      "Hun": 4786,
      "Out": 4787,
      "pant": 4788,
      "incess": 4789,
      "envelo": 4790,
      "stag": 4791,
      "ado": 4792,
      "Hell": 4793,
      "active": 4794,
      "distress": 4795,
      "directed": 4796,
      "William": 4797,
      "obliged": 4798,
      "Suddenly": 4799,
      "Fa": 4800,
      "Men": 4801,
      "Sup": 4802,
      "bought": 4803,
      "lid": 4804,
      "useless": 4805,
      "tois": 4806,
      "ales": 4807,
      "aloft": 4808,
      "cken": 4809,
      "Thir": 4810,
      "protest": 4811,
      "umber": 4812,
      "strain": 4813,
      "risk": 4814,
      "suffering": 4815,
      "steamer": 4816,
      "Dollmann": 4817,
      "Ser": 4818,
      "paren": 4819,
      "sailed": 4820,
      "geon": 4821,
      "fog": 4822,
      "headed": 4823,
      "preced": 4824,
      "current": 4825,
      "crime": 4826,
      "craw": 4827,
      "Poor": 4828,
      "weakness": 4829,
      "impression": 4830,
      "breeze": 4831,
      "Bet": 4832,
      "Both": 4833,
      "ED": 4834,
      "Next": 4835,
      "Tem": 4836,
      "Upon": 4837,
      "dign": 4838,
      "hit": 4839,
      "narr": 4840,
      "oy": 4841,
      "wrought": 4842,
      "infinite": 4843,
      "esy": 4844,
      "develo": 4845,
      "pool": 4846,
      "ults": 4847,
      "----\"": 4848,
      "pless": 4849,
      "glit": 4850,
      "pressing": 4851,
      "conscience": 4852,
      "bloody": 4853,
      "officer": 4854,
      "astonished": 4855,
      "benef": 4856,
      "Meanwhile": 4857,
      "Courtois": 4858,
      "Des": 4859,
      "Haw": 4860,
      "muttered": 4861,
      "rows": 4862,
      "scattered": 4863,
      "naught": 4864,
      "marvel": 4865,
      "string": 4866,
      "ridge": 4867,
      "milk": 4868,
      "poetry": 4869,
      "material": 4870,
      "philo": 4871,
      "?—": 4872,
      "Egy": 4873,
      "US": 4874,
      "fice": 4875,
      "mult": 4876,
      "ske": 4877,
      "stum": 4878,
      "rol": 4879,
      "motor": 4880,
      "astly": 4881,
      "torn": 4882,
      "dragged": 4883,
      "system": 4884,
      "hungry": 4885,
      "softly": 4886,
      "superst": 4887,
      "divided": 4888,
      "cases": 4889,
      "inclined": 4890,
      "Dragon": 4891,
      "Michael": 4892,
      "Bro": 4893,
      "Low": 4894,
      "Nature": 4895,
      "toms": 4896,
      "aries": 4897,
      "aband": 4898,
      "expressed": 4899,
      "ounce": 4900,
      "Soon": 4901,
      "trick": 4902,
      "closely": 4903,
      "striking": 4904,
      "gallant": 4905,
      "description": 4906,
      "remarkable": 4907,
      "victory": 4908,
      "brows": 4909,
      "weapons": 4910,
      "Arcadia": 4911,
      "explanation": 4912,
      "regret": 4913,
      "philoso": 4914,
      "Du": 4915,
      "cure": 4916,
      "gran": 4917,
      "——": 4918,
      "stared": 4919,
      "sey": 4920,
      "beating": 4921,
      "ala": 4922,
      "ented": 4923,
      "unable": 4924,
      "terms": 4925,
      "manif": 4926,
      "obst": 4927,
      "understanding": 4928,
      "gazing": 4929,
      "fourth": 4930,
      "steady": 4931,
      "murm": 4932,
      "plenty": 4933,
      "Spe": 4934,
      "cam": 4935,
      "renew": 4936,
      "beach": 4937,
      "forts": 4938,
      "iments": 4939,
      "unexpected": 4940,
      "unfortunate": 4941,
      "covery": 4942,
      "onel": 4943,
      "poem": 4944,
      "contem": 4945,
      "caut": 4946,
      "instance": 4947,
      "visions": 4948,
      "admit": 4949,
      "moonlight": 4950,
      "mingled": 4951,
      "banks": 4952,
      "permitted": 4953,
      "Sherwood": 4954,
      "admiration": 4955,
      "Certain": 4956,
      "Apollo": 4957,
      "manifest": 4958,
      "baby": 4959,
      "pul": 4960,
      "vap": 4961,
      "inous": 4962,
      "nearest": 4963,
      "itty": 4964,
      "clad": 4965,
      "scra": 4966,
      "udder": 4967,
      "giant": 4968,
      "powder": 4969,
      "coloured": 4970,
      "mistaken": 4971,
      "planet": 4972,
      "deserved": 4973,
      "Green": 4974,
      "eagerly": 4975,
      "fetch": 4976,
      "information": 4977,
      "reasons": 4978,
      "Dis": 4979,
      "Mons": 4980,
      "Und": 4981,
      "eating": 4982,
      "gig": 4983,
      "ites": 4984,
      "sex": 4985,
      "shudder": 4986,
      "absent": 4987,
      "indu": 4988,
      "thereof": 4989,
      "greet": 4990,
      "omed": 4991,
      "monarch": 4992,
      "divers": 4993,
      "fiery": 4994,
      "slew": 4995,
      "price": 4996,
      "valu": 4997,
      "severe": 4998,
      "affected": 4999,
      "acquain": 5000,
      "guests": 5001,
      "knocked": 5002,
      "practice": 5003,
      "IX": 5004,
      "_S": 5005,
      "dir": 5006,
      "lately": 5007,
      "poured": 5008,
      "“‘": 5009,
      "heed": 5010,
      "lebr": 5011,
      "beloved": 5012,
      "intention": 5013,
      "clever": 5014,
      "attering": 5015,
      "visitor": 5016,
      "sentence": 5017,
      "bands": 5018,
      "deeply": 5019,
      "crack": 5020,
      "calcul": 5021,
      "freely": 5022,
      "gallery": 5023,
      "gloom": 5024,
      "Yellow": 5025,
      "equally": 5026,
      "!'": 5027,
      "During": 5028,
      "Trip": 5029,
      "celebr": 5030,
      "utch": 5031,
      "fection": 5032,
      "exped": 5033,
      "oking": 5034,
      "Than": 5035,
      "seeking": 5036,
      "ics": 5037,
      "spout": 5038,
      "spark": 5039,
      "shaking": 5040,
      "daylight": 5041,
      "waist": 5042,
      "souls": 5043,
      "conditions": 5044,
      "numbers": 5045,
      "swung": 5046,
      "arrows": 5047,
      "gifts": 5048,
      "tolemus": 5049,
      "Down": 5050,
      "Ptar": 5051,
      "Tink": 5052,
      "Up": 5053,
      "dur": 5054,
      "nation": 5055,
      "page": 5056,
      "wits": 5057,
      "tomed": 5058,
      "ller": 5059,
      "staring": 5060,
      "ays": 5061,
      "details": 5062,
      "folly": 5063,
      "quet": 5064,
      "likewise": 5065,
      "ideas": 5066,
      "discovery": 5067,
      "nights": 5068,
      "obsc": 5069,
      "track": 5070,
      "horn": 5071,
      "phant": 5072,
      "dragon": 5073,
      "shows": 5074,
      "licity": 5075,
      "struggle": 5076,
      "confusion": 5077,
      "Seward": 5078,
      "fastened": 5079,
      "mortals": 5080,
      "defend": 5081,
      "Fairfax": 5082,
      "tumult": 5083,
      "Monsieur": 5084,
      "Ptarth": 5085,
      "Aunt": 5086,
      "Cor": 5087,
      "Lou": 5088,
      "aim": 5089,
      "non": 5090,
      "tid": 5091,
      "arian": 5092,
      "forces": 5093,
      "respon": 5094,
      "perform": 5095,
      "spur": 5096,
      "urely": 5097,
      "retreat": 5098,
      "solitary": 5099,
      "painful": 5100,
      "Love": 5101,
      "remarked": 5102,
      "pirates": 5103,
      "lodge": 5104,
      "Ajax": 5105,
      "Bra": 5106,
      "IR": 5107,
      "Sperm": 5108,
      "cep": 5109,
      "loves": 5110,
      "ulation": 5111,
      "umn": 5112,
      "disgu": 5113,
      "prim": 5114,
      "scen": 5115,
      "engage": 5116,
      "trad": 5117,
      "clearly": 5118,
      "examined": 5119,
      "maiden": 5120,
      "exercise": 5121,
      "method": 5122,
      "parents": 5123,
      "Triptolemus": 5124,
      "Mal": 5125,
      "Mem": 5126,
      "Old": 5127,
      "oon": 5128,
      "educ": 5129,
      "ldom": 5130,
      "entering": 5131,
      "sheet": 5132,
      "aks": 5133,
      "sses": 5134,
      "phr": 5135,
      "freed": 5136,
      "mbers": 5137,
      "slaughter": 5138,
      "necessity": 5139,
      "pursued": 5140,
      "leaning": 5141,
      "sacrifice": 5142,
      "Aou": 5143,
      "Cali": 5144,
      "Dus": 5145,
      "Town": 5146,
      "mud": 5147,
      "èle": 5148,
      "llers": 5149,
      "haw": 5150,
      "liqu": 5151,
      "feather": 5152,
      "pel": 5153,
      "mankind": 5154,
      "apt": 5155,
      "intent": 5156,
      "throughout": 5157,
      "wondering": 5158,
      "chiefs": 5159,
      "larger": 5160,
      "humour": 5161,
      "Moncharm": 5162,
      "profound": 5163,
      "OOK": 5164,
      "behavi": 5165,
      "acquainted": 5166,
      "Aouda": 5167,
      "Moncharmin": 5168,
      "Fit": 5169,
      "Right": 5170,
      "emotion": 5171,
      "sang": 5172,
      "tu": 5173,
      "ware": 5174,
      "arl": 5175,
      "arrange": 5176,
      "chol": 5177,
      "utmost": 5178,
      "moor": 5179,
      "whither": 5180,
      "constru": 5181,
      "slee": 5182,
      "purple": 5183,
      "utely": 5184,
      "lively": 5185,
      "motions": 5186,
      "Adèle": 5187,
      "satisfaction": 5188,
      "brilliant": 5189,
      "Bessie": 5190,
      "Son": 5191,
      "cig": 5192,
      "nay": 5193,
      "inquired": 5194,
      "retired": 5195,
      "mee": 5196,
      "abroad": 5197,
      "ruins": 5198,
      "blade": 5199,
      "reads": 5200,
      "evident": 5201,
      "jection": 5202,
      "buy": 5203,
      "abode": 5204,
      "exceeding": 5205,
      "crit": 5206,
      "legend": 5207,
      "burgh": 5208,
      "reasonable": 5209,
      "rays": 5210,
      "elect": 5211,
      "demanded": 5212,
      "Madam": 5213,
      "suspicion": 5214,
      "World": 5215,
      "El": 5216,
      "gust": 5217,
      "image": 5218,
      "deeper": 5219,
      "establ": 5220,
      "performed": 5221,
      "acity": 5222,
      "glas": 5223,
      "longed": 5224,
      "Thereupon": 5225,
      "everywhere": 5226,
      "highly": 5227,
      "pains": 5228,
      "flower": 5229,
      "eleven": 5230,
      "courtesy": 5231,
      "keys": 5232,
      "property": 5233,
      "wandering": 5234,
      "farewell": 5235,
      "Dun": 5236,
      "Know": 5237,
      "NO": 5238,
      "Nant": 5239,
      "Were": 5240,
      "sque": 5241,
      "anno": 5242,
      "ower": 5243,
      "shif": 5244,
      "owner": 5245,
      "monstr": 5246,
      "hearted": 5247,
      "settle": 5248,
      "aboard": 5249,
      "prompt": 5250,
      "Daae": 5251,
      "extrem": 5252,
      "shelter": 5253,
      "harpoone": 5254,
      "Douglas": 5255,
      "Patro": 5256,
      "aver": 5257,
      "daring": 5258,
      "nations": 5259,
      "orter": 5260,
      "mechan": 5261,
      "iring": 5262,
      "consu": 5263,
      "aches": 5264,
      "glanced": 5265,
      "steeds": 5266,
      "sunset": 5267,
      "uttering": 5268,
      "Reed": 5269,
      "straightway": 5270,
      "ugly": 5271,
      "Darling": 5272,
      "sensible": 5273,
      "gloomy": 5274,
      "punishment": 5275,
      "conclusion": 5276,
      "inhabitants": 5277,
      "group": 5278,
      "Patroclus": 5279,
      ");": 5280,
      "ica": 5281,
      "kn": 5282,
      "map": 5283,
      "s_": 5284,
      "leather": 5285,
      "idly": 5286,
      "manage": 5287,
      "lace": 5288,
      "Thank": 5289,
      "bolt": 5290,
      "mental": 5291,
      "ranks": 5292,
      "clas": 5293,
      "precise": 5294,
      "final": 5295,
      "sorts": 5296,
      "consideration": 5297,
      "Indians": 5298,
      "Christian": 5299,
      "11": 5300,
      "Aust": 5301,
      "Gold": 5302,
      "ador": 5303,
      "urged": 5304,
      "nephe": 5305,
      "indign": 5306,
      "icious": 5307,
      "someone": 5308,
      "blast": 5309,
      "intense": 5310,
      "kingdom": 5311,
      "smart": 5312,
      "waved": 5313,
      "crept": 5314,
      "purse": 5315,
      "correspond": 5316,
      "starting": 5317,
      "shortly": 5318,
      "crossing": 5319,
      "humble": 5320,
      "vengeance": 5321,
      "viathan": 5322,
      "polite": 5323,
      "BOOK": 5324,
      "Gover": 5325,
      "Tis": 5326,
      "VI": 5327,
      "oman": 5328,
      "repro": 5329,
      "offee": 5330,
      "iture": 5331,
      "rob": 5332,
      "cop": 5333,
      "modest": 5334,
      "composed": 5335,
      "disposition": 5336,
      "desol": 5337,
      "eyed": 5338,
      "jolly": 5339,
      "Roman": 5340,
      "considering": 5341,
      "thousands": 5342,
      "admitted": 5343,
      "leader": 5344,
      "sailor": 5345,
      "Dorus": 5346,
      "defence": 5347,
      "stretch": 5348,
      "gratitude": 5349,
      "affairs": 5350,
      "consequence": 5351,
      "frequently": 5352,
      "beams": 5353,
      "nodded": 5354,
      "correct": 5355,
      "Fe": 5356,
      "Hall": 5357,
      "Med": 5358,
      "cto": 5359,
      "cities": 5360,
      "kick": 5361,
      "sevent": 5362,
      "vehe": 5363,
      "sable": 5364,
      "cott": 5365,
      "conquest": 5366,
      "ilgrim": 5367,
      "boots": 5368,
      "proportion": 5369,
      "partial": 5370,
      "brains": 5371,
      "pleasing": 5372,
      "entertain": 5373,
      "conceal": 5374,
      "vessels": 5375,
      "gift": 5376,
      "amaze": 5377,
      "Kirk": 5378,
      "Mur": 5379,
      "Rin": 5380,
      "bush": 5381,
      "date": 5382,
      "ials": 5383,
      "wart": 5384,
      "antic": 5385,
      "resh": 5386,
      "leag": 5387,
      "becoming": 5388,
      "adop": 5389,
      "adise": 5390,
      "vered": 5391,
      "bliss": 5392,
      "discer": 5393,
      "retain": 5394,
      "sche": 5395,
      "landed": 5396,
      "repent": 5397,
      "march": 5398,
      "interior": 5399,
      "laying": 5400,
      "temple": 5401,
      "Bea": 5402,
      "iao": 5403,
      "smoking": 5404,
      "crowded": 5405,
      "incred": 5406,
      "incident": 5407,
      "Greek": 5408,
      "stirred": 5409,
      "tiny": 5410,
      "Highland": 5411,
      "ignorant": 5412,
      "require": 5413,
      "remote": 5414,
      "Jav": 5415,
      "SE": 5416,
      "Span": 5417,
      "Witch": 5418,
      "lur": 5419,
      "pho": 5420,
      "rown": 5421,
      "tend": 5422,
      "wreck": 5423,
      "inner": 5424,
      "informed": 5425,
      "itive": 5426,
      "alight": 5427,
      "althy": 5428,
      "aye": 5429,
      "rie": 5430,
      "rily": 5431,
      "tip": 5432,
      "anywhere": 5433,
      "glow": 5434,
      "prefer": 5435,
      "chap": 5436,
      "trip": 5437,
      "izing": 5438,
      "numerous": 5439,
      "safely": 5440,
      "Perks": 5441,
      "official": 5442,
      "concluded": 5443,
      "persuaded": 5444,
      "heaps": 5445,
      "Louis": 5446,
      "nephew": 5447,
      "Tin": 5448,
      "bath": 5449,
      "coff": 5450,
      "mask": 5451,
      "sive": 5452,
      "tune": 5453,
      "enthus": 5454,
      "asions": 5455,
      "chose": 5456,
      "rot": 5457,
      "cock": 5458,
      "negle": 5459,
      "accent": 5460,
      "Its": 5461,
      "plans": 5462,
      "angle": 5463,
      "Sola": 5464,
      "passengers": 5465,
      "merchant": 5466,
      "attent": 5467,
      "contri": 5468,
      "sunk": 5469,
      "tax": 5470,
      "meantime": 5471,
      "forthwith": 5472,
      "driving": 5473,
      "throng": 5474,
      "quarrel": 5475,
      "burned": 5476,
      "invited": 5477,
      "shooting": 5478,
      "tunnel": 5479,
      "gradually": 5480,
      "Certainly": 5481,
      "Caliph": 5482,
      "AD": 5483,
      "Bad": 5484,
      "Fort": 5485,
      "Grand": 5486,
      "HIS": 5487,
      "Ice": 5488,
      "awhile": 5489,
      "bred": 5490,
      "dancing": 5491,
      "iently": 5492,
      "oars": 5493,
      "pup": 5494,
      "astic": 5495,
      "member": 5496,
      "contained": 5497,
      "thanked": 5498,
      "disgrace": 5499,
      "vesti": 5500,
      "lets": 5501,
      "guil": 5502,
      "addle": 5503,
      "verses": 5504,
      "cutting": 5505,
      "doubtless": 5506,
      "murmur": 5507,
      "suspect": 5508,
      "credit": 5509,
      "sports": 5510,
      "logical": 5511,
      "climbed": 5512,
      "Among": 5513,
      "City": 5514,
      "Ran": 5515,
      "Tre": 5516,
      "acted": 5517,
      "gru": 5518,
      "ives": 5519,
      "lind": 5520,
      "scient": 5521,
      "seldom": 5522,
      "ids": 5523,
      "delic": 5524,
      "moan": 5525,
      "consult": 5526,
      "prophe": 5527,
      "uding": 5528,
      "attended": 5529,
      "towers": 5530,
      "confused": 5531,
      "summit": 5532,
      "prayers": 5533,
      "facts": 5534,
      "suspected": 5535,
      "importance": 5536,
      "whaling": 5537,
      "contrast": 5538,
      "lucky": 5539,
      "hunting": 5540,
      "separate": 5541,
      "British": 5542,
      "accustomed": 5543,
      "obedience": 5544,
      "magnificent": 5545,
      "Under": 5546,
      "behaviour": 5547,
      "34": 5548,
      "Gar": 5549,
      "Mill": 5550,
      "eous": 5551,
      "fil": 5552,
      "gny": 5553,
      "hint": 5554,
      "sof": 5555,
      "vul": 5556,
      "refresh": 5557,
      "leis": 5558,
      "sees": 5559,
      "chin": 5560,
      "vet": 5561,
      "alled": 5562,
      "unusual": 5563,
      "raft": 5564,
      "keeper": 5565,
      "cky": 5566,
      "voc": 5567,
      "council": 5568,
      "fired": 5569,
      "restra": 5570,
      "fairy": 5571,
      "Without": 5572,
      "Angel": 5573,
      "salt": 5574,
      "refuse": 5575,
      "drinking": 5576,
      "Chagny": 5577,
      "ivid": 5578,
      "patience": 5579,
      "gesture": 5580,
      "Aye": 5581,
      "Liz": 5582,
      "awoke": 5583,
      "lum": 5584,
      "rings": 5585,
      "load": 5586,
      "deer": 5587,
      "butter": 5588,
      "sustain": 5589,
      "quis": 5590,
      "aker": 5591,
      "aces": 5592,
      "blest": 5593,
      "disci": 5594,
      "attached": 5595,
      "gracious": 5596,
      "finish": 5597,
      "imagin": 5598,
      "effects": 5599,
      "throwing": 5600,
      "favourite": 5601,
      "accepted": 5602,
      "ENT": 5603,
      "government": 5604,
      "hitherto": 5605,
      "appointment": 5606,
      "Many": 5607,
      "duck": 5608,
      "knot": 5609,
      "invisible": 5610,
      "recover": 5611,
      "arse": 5612,
      "mead": 5613,
      "spend": 5614,
      "glim": 5615,
      "angus": 5616,
      "hip": 5617,
      "warrant": 5618,
      "draught": 5619,
      "wooden": 5620,
      "chiefly": 5621,
      "witch": 5622,
      "hunger": 5623,
      "ception": 5624,
      "kneel": 5625,
      "lantern": 5626,
      "depths": 5627,
      "hiding": 5628,
      "folded": 5629,
      "Plangus": 5630,
      "style": 5631,
      "messenger": 5632,
      "innocent": 5633,
      "puzzled": 5634,
      "36": 5635,
      "Hor": 5636,
      "Rod": 5637,
      "Tar": 5638,
      "bend": 5639,
      "coffee": 5640,
      "nut": 5641,
      "rhy": 5642,
      "tion": 5643,
      "ule": 5644,
      "ands": 5645,
      "ider": 5646,
      "nois": 5647,
      "female": 5648,
      "afar": 5649,
      "umes": 5650,
      "deny": 5651,
      "warn": 5652,
      "drag": 5653,
      "follows": 5654,
      "onsense": 5655,
      "thirst": 5656,
      "venture": 5657,
      "changing": 5658,
      "prisoners": 5659,
      "concern": 5660,
      "slightest": 5661,
      "experienced": 5662,
      "charming": 5663,
      "beaten": 5664,
      "increase": 5665,
      "21": 5666,
      "Lake": 5667,
      "Sch": 5668,
      "dashed": 5669,
      "equi": 5670,
      "iable": 5671,
      "ore": 5672,
      "xius": 5673,
      "oust": 5674,
      "arranged": 5675,
      "forgive": 5676,
      "ente": 5677,
      "term": 5678,
      "noted": 5679,
      "shun": 5680,
      "individ": 5681,
      "willingly": 5682,
      "plat": 5683,
      "torment": 5684,
      "northern": 5685,
      "nerves": 5686,
      "miser": 5687,
      "value": 5688,
      "floating": 5689,
      "mount": 5690,
      "continue": 5691,
      "harbour": 5692,
      "atively": 5693,
      "flag": 5694,
      "pirate": 5695,
      "anxiety": 5696,
      "provided": 5697,
      "mixed": 5698,
      "impatient": 5699,
      "gathering": 5700,
      "pistol": 5701,
      "Venus": 5702,
      "exceedingly": 5703,
      "annoy": 5704,
      "Iceland": 5705,
      "Mop": 5706,
      "Wang": 5707,
      "dining": 5708,
      "elo": 5709,
      "lain": 5710,
      "rine": 5711,
      "tack": 5712,
      "uge": 5713,
      "ench": 5714,
      "chim": 5715,
      "rial": 5716,
      "ample": 5717,
      "convi": 5718,
      "whenever": 5719,
      "orton": 5720,
      "rowed": 5721,
      "fling": 5722,
      "landlord": 5723,
      "martial": 5724,
      "distri": 5725,
      "visited": 5726,
      "valour": 5727,
      "hastened": 5728,
      "penet": 5729,
      "bidding": 5730,
      "obeyed": 5731,
      "wedding": 5732,
      "Truly": 5733,
      "intelligence": 5734,
      "intervals": 5735,
      "Mopsa": 5736,
      "LE": 5737,
      "oak": 5738,
      "rated": 5739,
      "swo": 5740,
      "von": 5741,
      "outer": 5742,
      "represented": 5743,
      "ision": 5744,
      "organ": 5745,
      "bel": 5746,
      "notion": 5747,
      "ares": 5748,
      "pole": 5749,
      "hook": 5750,
      "wanting": 5751,
      "addition": 5752,
      "chariot": 5753,
      "related": 5754,
      "Most": 5755,
      "appare": 5756,
      "applied": 5757,
      "labor": 5758,
      "pursuit": 5759,
      "wander": 5760,
      "univers": 5761,
      "destroyed": 5762,
      "amidst": 5763,
      "smell": 5764,
      "audience": 5765,
      "shepherd": 5766,
      "enthusias": 5767,
      "guilty": 5768,
      "Hung": 5769,
      "San": 5770,
      "Vir": 5771,
      "War": 5772,
      "drunk": 5773,
      "ium": 5774,
      "üning": 5775,
      "tha": 5776,
      "bears": 5777,
      "charms": 5778,
      "sooth": 5779,
      "sovere": 5780,
      "upstairs": 5781,
      "polit": 5782,
      "excess": 5783,
      "accompany": 5784,
      "spec": 5785,
      "plac": 5786,
      "control": 5787,
      "champ": 5788,
      "shores": 5789,
      "Ifrit": 5790,
      "impse": 5791,
      "painted": 5792,
      "drops": 5793,
      "circl": 5794,
      "stronger": 5795,
      "Loch": 5796,
      "enterpr": 5797,
      "dynasty": 5798,
      "guards": 5799,
      "extended": 5800,
      "sailors": 5801,
      "virtuous": 5802,
      "describe": 5803,
      "America": 5804,
      "000": 5805,
      "employed": 5806,
      "mutual": 5807,
      "pierced": 5808,
      "assistance": 5809,
      "accomplished": 5810,
      "Brüning": 5811,
      "amazement": 5812,
      "scientific": 5813,
      "sovereign": 5814,
      "Bishop": 5815,
      "Tra": 5816,
      "bility": 5817,
      "cue": 5818,
      "fitted": 5819,
      "sne": 5820,
      "vac": 5821,
      "ators": 5822,
      "stam": 5823,
      "sele": 5824,
      "utation": 5825,
      "abide": 5826,
      "domes": 5827,
      "endous": 5828,
      "glimpse": 5829,
      "grin": 5830,
      "maybe": 5831,
      "brass": 5832,
      "crest": 5833,
      "Becky": 5834,
      "steadily": 5835,
      "Italian": 5836,
      "Beaum": 5837,
      "Five": 5838,
      "Loth": 5839,
      "Sult": 5840,
      "ape": 5841,
      "aper": 5842,
      "jave": 5843,
      "len": 5844,
      "”—": 5845,
      "heels": 5846,
      "robe": 5847,
      "deem": 5848,
      "outward": 5849,
      "ulate": 5850,
      "Think": 5851,
      "yeomen": 5852,
      "spell": 5853,
      "cloak": 5854,
      "Gods": 5855,
      "startled": 5856,
      "capital": 5857,
      "Sometimes": 5858,
      "ponder": 5859,
      "wandered": 5860,
      "Shah": 5861,
      "reflection": 5862,
      "Nevertheless": 5863,
      "possibility": 5864,
      "conquer": 5865,
      "grasp": 5866,
      "plunged": 5867,
      "35": 5868,
      "Ana": 5869,
      "Ce": 5870,
      "Fer": 5871,
      "Franc": 5872,
      "Miao": 5873,
      "Round": 5874,
      "dried": 5875,
      "science": 5876,
      "udes": 5877,
      "inch": 5878,
      "veget": 5879,
      "contempt": 5880,
      "apped": 5881,
      "prodig": 5882,
      "desires": 5883,
      "created": 5884,
      "warf": 5885,
      "helpless": 5886,
      "impul": 5887,
      "strangely": 5888,
      "Carter": 5889,
      "ugust": 5890,
      "glasses": 5891,
      "subjects": 5892,
      "boxes": 5893,
      "India": 5894,
      "circumstance": 5895,
      "belonged": 5896,
      "furniture": 5897,
      "clerk": 5898,
      "Colonel": 5899,
      "yacht": 5900,
      "murmured": 5901,
      "Anaxius": 5902,
      "Acc": 5903,
      "Bors": 5904,
      "Dear": 5905,
      "Pi": 5906,
      "Tal": 5907,
      "bits": 5908,
      "vas": 5909,
      "yre": 5910,
      "tops": 5911,
      "assa": 5912,
      "associ": 5913,
      "seal": 5914,
      "chart": 5915,
      "cease": 5916,
      "uncertain": 5917,
      "rival": 5918,
      "lots": 5919,
      "tick": 5920,
      "aments": 5921,
      "perceive": 5922,
      "commen": 5923,
      "rub": 5924,
      "spears": 5925,
      "flour": 5926,
      "trap": 5927,
      "trace": 5928,
      "serving": 5929,
      "founded": 5930,
      "trembled": 5931,
      "runs": 5932,
      "smaller": 5933,
      "rendered": 5934,
      "alike": 5935,
      "torture": 5936,
      "embrace": 5937,
      "betrayed": 5938,
      "gigantic": 5939,
      "monstrous": 5940,
      "individual": 5941,
      ";--": 5942,
      "Dian": 5943,
      "Ham": 5944,
      "Sa": 5945,
      "frank": 5946,
      "erick": 5947,
      "recomm": 5948,
      "isle": 5949,
      "haught": 5950,
      "secur": 5951,
      "beer": 5952,
      "ird": 5953,
      "ades": 5954,
      "weep": 5955,
      "amuse": 5956,
      "appreci": 5957,
      "blem": 5958,
      "didst": 5959,
      "cip": 5960,
      "descent": 5961,
      "goodly": 5962,
      "Stand": 5963,
      "stricken": 5964,
      "shades": 5965,
      "eaten": 5966,
      "iii": 5967,
      "Merlin": 5968,
      "Morris": 5969,
      "disturbed": 5970,
      "Friar": 5971,
      "Francis": 5972,
      "Baby": 5973,
      "Camp": 5974,
      "Nes": 5975,
      "Pass": 5976,
      "Tars": 5977,
      "UR": 5978,
      "ckets": 5979,
      "mouse": 5980,
      "sper": 5981,
      "yal": 5982,
      "vern": 5983,
      "sages": 5984,
      "raging": 5985,
      "tible": 5986,
      "doll": 5987,
      "domin": 5988,
      "Thorn": 5989,
      "disc": 5990,
      "scor": 5991,
      "udge": 5992,
      "brary": 5993,
      "breathe": 5994,
      "Chou": 5995,
      "nervous": 5996,
      "ladder": 5997,
      "dame": 5998,
      "instinct": 5999,
      "barr": 6000,
      "bushes": 6001,
      "continually": 6002,
      "imagined": 6003,
      "slaves": 6004,
      "probable": 6005,
      "porter": 6006,
      "prevented": 6007,
      "bulk": 6008,
      "Trojans": 6009,
      "branch": 6010,
      "River": 6011,
      "jaws": 6012,
      "execution": 6013,
      "glittering": 6014,
      "Rinald": 6015,
      ";—": 6016,
      "Pa": 6017,
      "awe": 6018,
      "link": 6019,
      "lunch": 6020,
      "atory": 6021,
      "mansion": 6022,
      "conceived": 6023,
      "perple": 6024,
      "omin": 6025,
      "disposed": 6026,
      "species": 6027,
      "beings": 6028,
      "treas": 6029,
      "wax": 6030,
      "dazz": 6031,
      "sunlight": 6032,
      "meanwhile": 6033,
      "region": 6034,
      "reaching": 6035,
      "roads": 6036,
      "judged": 6037,
      "heavily": 6038,
      "burnt": 6039,
      "Command": 6040,
      "instrument": 6041,
      "feeble": 6042,
      "energy": 6043,
      "ignorance": 6044,
      "distinctly": 6045,
      "desirous": 6046,
      "introduced": 6047,
      "substance": 6048,
      "thoroughly": 6049,
      "!)": 6050,
      ";”": 6051,
      "Kings": 6052,
      "tted": 6053,
      "yr": 6054,
      "recovered": 6055,
      "stuck": 6056,
      "belt": 6057,
      "quit": 6058,
      "Thunder": 6059,
      "eless": 6060,
      "landing": 6061,
      "backs": 6062,
      "older": 6063,
      "beggar": 6064,
      "waving": 6065,
      "sweep": 6066,
      "trial": 6067,
      "ancestors": 6068,
      "battles": 6069,
      "extent": 6070,
      "Emily": 6071,
      "concealed": 6072,
      "washed": 6073,
      "Flask": 6074,
      "recognized": 6075,
      "mourn": 6076,
      "dishon": 6077,
      "exhausted": 6078,
      "Spirit": 6079,
      "Faith": 6080,
      "skelet": 6081,
      "Beaumains": 6082,
      "Sultan": 6083,
      "38": 6084,
      "39": 6085,
      "Asto": 6086,
      "France": 6087,
      "Gala": 6088,
      "Hard": 6089,
      "Lat": 6090,
      "Octo": 6091,
      "bond": 6092,
      "gul": 6093,
      "jer": 6094,
      "sperm": 6095,
      "vow": 6096,
      "rele": 6097,
      "arched": 6098,
      "itated": 6099,
      "owe": 6100,
      "novel": 6101,
      "deceived": 6102,
      "tivity": 6103,
      "amount": 6104,
      "caution": 6105,
      "indul": 6106,
      "woes": 6107,
      "access": 6108,
      "screw": 6109,
      "previous": 6110,
      "justly": 6111,
      "treated": 6112,
      "survey": 6113,
      "heartily": 6114,
      "tranqu": 6115,
      "favor": 6116,
      "refuge": 6117,
      "satisfy": 6118,
      "yielded": 6119,
      "anguish": 6120,
      "fatig": 6121,
      "Ellen": 6122,
      "firmly": 6123,
      "cheerful": 6124,
      "religion": 6125,
      "Henry": 6126,
      "major": 6127,
      "Temple": 6128,
      "October": 6129,
      "\"'": 6130,
      "\"[": 6131,
      "Corn": 6132,
      "Wild": 6133,
      "aves": 6134,
      "cence": 6135,
      "dus": 6136,
      "fes": 6137,
      "eral": 6138,
      "reated": 6139,
      "arise": 6140,
      "unconscious": 6141,
      "cape": 6142,
      "compassion": 6143,
      "readily": 6144,
      "flashed": 6145,
      "traged": 6146,
      "brook": 6147,
      "moral": 6148,
      "blaze": 6149,
      "straw": 6150,
      "trade": 6151,
      "strict": 6152,
      "palm": 6153,
      "hammer": 6154,
      "Life": 6155,
      "guarded": 6156,
      "occasionally": 6157,
      "depth": 6158,
      "conceit": 6159,
      "remembrance": 6160,
      "separated": 6161,
      "supply": 6162,
      "announced": 6163,
      "bestowed": 6164,
      "source": 6165,
      "multitude": 6166,
      "Clan": 6167,
      "Hence": 6168,
      "Other": 6169,
      "Trent": 6170,
      "Uly": 6171,
      "ially": 6172,
      "jet": 6173,
      "jeddak": 6174,
      "wink": 6175,
      "repair": 6176,
      "sters": 6177,
      "saving": 6178,
      "loaded": 6179,
      "coo": 6180,
      "dearest": 6181,
      "moss": 6182,
      "motive": 6183,
      "absur": 6184,
      "ambit": 6185,
      "managed": 6186,
      "conver": 6187,
      "agers": 6188,
      "accur": 6189,
      "achie": 6190,
      "cied": 6191,
      "armies": 6192,
      "headlong": 6193,
      "obtain": 6194,
      "passions": 6195,
      "begged": 6196,
      "efforts": 6197,
      "cript": 6198,
      "strongly": 6199,
      "commands": 6200,
      "fancied": 6201,
      "brig": 6202,
      "graceful": 6203,
      "attempted": 6204,
      "travelling": 6205,
      "slightly": 6206,
      "wrapped": 6207,
      "wretch": 6208,
      "sufficiently": 6209,
      "hesitated": 6210,
      "Moreover": 6211,
      "Hasan": 6212,
      "Ulysses": 6213,
      "47": 6214,
      "Cent": 6215,
      "Four": 6216,
      "Mis": 6217,
      "Sep": 6218,
      "pink": 6219,
      "san": 6220,
      "trunk": 6221,
      "vice": 6222,
      "theory": 6223,
      "perchance": 6224,
      "disput": 6225,
      "greatness": 6226,
      "prow": 6227,
      "useful": 6228,
      "type": 6229,
      "traitor": 6230,
      "carpet": 6231,
      "adding": 6232,
      "tember": 6233,
      "curtain": 6234,
      "doubtful": 6235,
      "seeming": 6236,
      "Something": 6237,
      "render": 6238,
      "objects": 6239,
      "brandy": 6240,
      "tossed": 6241,
      "eggs": 6242,
      "narrative": 6243,
      "expedition": 6244,
      "coffin": 6245,
      "Diana": 6246,
      "absurd": 6247,
      "Giry": 6248,
      "Zod": 6249,
      "_i": 6250,
      "actions": 6251,
      "ctory": 6252,
      "text": 6253,
      "wn": 6254,
      "insp": 6255,
      "array": 6256,
      "celes": 6257,
      "tives": 6258,
      "foes": 6259,
      "akened": 6260,
      "rane": 6261,
      "stopping": 6262,
      "blank": 6263,
      "nevertheless": 6264,
      "brush": 6265,
      "avail": 6266,
      "contents": 6267,
      "tales": 6268,
      "hasty": 6269,
      "Doctor": 6270,
      "burg": 6271,
      "lotte": 6272,
      "drift": 6273,
      "learning": 6274,
      "flowing": 6275,
      "troubles": 6276,
      "Paradise": 6277,
      "motionless": 6278,
      "fishing": 6279,
      "accordingly": 6280,
      "_Adam": 6281,
      "mirror": 6282,
      "sensation": 6283,
      "rules": 6284,
      "extremely": 6285,
      "preserved": 6286,
      "whirl": 6287,
      "cliffs": 6288,
      "Hastings": 6289,
      "swallowed": 6290,
      "summoned": 6291,
      "_I_": 6292,
      "dignity": 6293,
      "phrase": 6294,
      "freedom": 6295,
      "Thornfield": 6296,
      "celestial": 6297,
      "GH": 6298,
      "Lin": 6299,
      "Land": 6300,
      "RI": 6301,
      "Rus": 6302,
      "bac": 6303,
      "fasc": 6304,
      "gap": 6305,
      "gorge": 6306,
      "puff": 6307,
      "uten": 6308,
      "sailing": 6309,
      "dew": 6310,
      "poe": 6311,
      "exper": 6312,
      "endure": 6313,
      "somebody": 6314,
      "aft": 6315,
      "canst": 6316,
      "medic": 6317,
      "mostly": 6318,
      "arkas": 6319,
      "observe": 6320,
      "hibit": 6321,
      "doorway": 6322,
      "missing": 6323,
      "skull": 6324,
      "holds": 6325,
      "reality": 6326,
      "color": 6327,
      "devot": 6328,
      "deliber": 6329,
      "Quince": 6330,
      "fiercely": 6331,
      "twilight": 6332,
      "immediate": 6333,
      "sighed": 6334,
      "Madame": 6335,
      "Burgh": 6336,
      "issue": 6337,
      "Charlotte": 6338,
      "Huang": 6339,
      "distinguished": 6340,
      "Jean": 6341,
      "acknowled": 6342,
      "amazed": 6343,
      "condem": 6344,
      "!’": 6345,
      "40": 6346,
      "CO": 6347,
      "Could": 6348,
      "Eyre": 6349,
      "Tarkas": 6350,
      "cars": 6351,
      "error": 6352,
      "leaf": 6353,
      "haz": 6354,
      "seize": 6355,
      "idents": 6356,
      "ve_": 6357,
      "abled": 6358,
      "abrupt": 6359,
      "contra": 6360,
      "quant": 6361,
      "Head": 6362,
      "prose": 6363,
      "angers": 6364,
      "lesson": 6365,
      "scr": 6366,
      "brings": 6367,
      "attitude": 6368,
      "parti": 6369,
      "genius": 6370,
      "sunshine": 6371,
      "fearing": 6372,
      "committed": 6373,
      "risen": 6374,
      "joys": 6375,
      "channel": 6376,
      "Anon": 6377,
      "Ange": 6378,
      "paint": 6379,
      "hundreds": 6380,
      "Mosle": 6381,
      "bounds": 6382,
      "descending": 6383,
      "buildings": 6384,
      "properly": 6385,
      "contented": 6386,
      "neighb": 6387,
      "fruits": 6388,
      "earnestly": 6389,
      "scream": 6390,
      "ceremony": 6391,
      "grieved": 6392,
      "Kirkwall": 6393,
      "delicate": 6394,
      "CE": 6395,
      "Gra": 6396,
      "bending": 6397,
      "cared": 6398,
      "ratt": 6399,
      "rides": 6400,
      "tan": 6401,
      "toil": 6402,
      "wearing": 6403,
      "tier": 6404,
      "absor": 6405,
      "poses": 6406,
      "project": 6407,
      "pluck": 6408,
      "shaped": 6409,
      "clan": 6410,
      "shouldn": 6411,
      "nails": 6412,
      "spoil": 6413,
      "Allan": 6414,
      "pilot": 6415,
      "occasions": 6416,
      "wheels": 6417,
      "casting": 6418,
      "directions": 6419,
      "pract": 6420,
      "Should": 6421,
      "boldly": 6422,
      "Shakes": 6423,
      "cruelty": 6424,
      "potent": 6425,
      "Majesty": 6426,
      "marvell": 6427,
      "Pallad": 6428,
      "drowned": 6429,
      "pronounced": 6430,
      "widow": 6431,
      "vulgar": 6432,
      "Lizzy": 6433,
      "Rinaldi": 6434,
      "Galahad": 6435,
      "Dam": 6436,
      "Full": 6437,
      "IT": 6438,
      "Wa": 6439,
      "_C": 6440,
      "jump": 6441,
      "xion": 6442,
      "recall": 6443,
      "heather": 6444,
      "roses": 6445,
      "nels": 6446,
      "quas": 6447,
      "ulated": 6448,
      "perfection": 6449,
      "comfor": 6450,
      "ache": 6451,
      "proposed": 6452,
      "obtained": 6453,
      "resting": 6454,
      "advancing": 6455,
      "cub": 6456,
      "corpse": 6457,
      "actual": 6458,
      "regions": 6459,
      "archus": 6460,
      "wishing": 6461,
      "ibly": 6462,
      "occasional": 6463,
      "quality": 6464,
      "assumed": 6465,
      "candles": 6466,
      "affli": 6467,
      "persuade": 6468,
      "furnished": 6469,
      "Euarchus": 6470,
      "Saturn": 6471,
      "injury": 6472,
      "lifting": 6473,
      "revealed": 6474,
      "Hawkins": 6475,
      "valuable": 6476,
      "education": 6477,
      "commenced": 6478,
      "August": 6479,
      "Han": 6480,
      "ME": 6481,
      "aly": 6482,
      "dangers": 6483,
      "eh": 6484,
      "fran": 6485,
      "hunt": 6486,
      "nie": 6487,
      "schol": 6488,
      "insult": 6489,
      "stately": 6490,
      "roared": 6491,
      "deaf": 6492,
      "Thom": 6493,
      "wouldst": 6494,
      "rightly": 6495,
      "cours": 6496,
      "hearty": 6497,
      "bub": 6498,
      "cares": 6499,
      "gale": 6500,
      "strained": 6501,
      "destined": 6502,
      "guardian": 6503,
      "hosts": 6504,
      "killing": 6505,
      "calmly": 6506,
      "relieved": 6507,
      "balance": 6508,
      "reverence": 6509,
      "disturb": 6510,
      "shepherds": 6511,
      "crimson": 6512,
      "Gardiner": 6513,
      "panting": 6514,
      "durst": 6515,
      "50": 6516,
      "?'": 6517,
      "Neither": 6518,
      "Ren": 6519,
      "Youn": 6520,
      "frown": 6521,
      "vated": 6522,
      "western": 6523,
      "halt": 6524,
      "library": 6525,
      "you_": 6526,
      "riot": 6527,
      "sack": 6528,
      "definite": 6529,
      "plant": 6530,
      "plough": 6531,
      "oms": 6532,
      "check": 6533,
      "gets": 6534,
      "repul": 6535,
      "phan": 6536,
      "careless": 6537,
      "compared": 6538,
      "Arg": 6539,
      "ensions": 6540,
      "sounding": 6541,
      "covering": 6542,
      "centuries": 6543,
      "mblance": 6544,
      "volcan": 6545,
      "movements": 6546,
      "views": 6547,
      "Hotel": 6548,
      "madness": 6549,
      "Sunday": 6550,
      "ivory": 6551,
      "bulw": 6552,
      "degrees": 6553,
      "despite": 6554,
      "kerchief": 6555,
      "argument": 6556,
      "stupid": 6557,
      "convenient": 6558,
      "Dusar": 6559,
      "Roderick": 6560,
      "chimney": 6561,
      "_Adam_": 6562,
      "Palladius": 6563,
      "App": 6564,
      "Jap": 6565,
      "Surely": 6566,
      "Val": 6567,
      "VIII": 6568,
      "bru": 6569,
      "dan": 6570,
      "dwarf": 6571,
      "fountain": 6572,
      "hound": 6573,
      "mould": 6574,
      "prud": 6575,
      "zer": 6576,
      "inal": 6577,
      "inches": 6578,
      "rein": 6579,
      "bewild": 6580,
      "chased": 6581,
      "terrors": 6582,
      "rav": 6583,
      "coach": 6584,
      "feed": 6585,
      "abund": 6586,
      "icing": 6587,
      "canal": 6588,
      "plor": 6589,
      "inkled": 6590,
      "clay": 6591,
      "flaming": 6592,
      "everyone": 6593,
      "dense": 6594,
      "breed": 6595,
      "Forest": 6596,
      "flee": 6597,
      "footsteps": 6598,
      "colours": 6599,
      "sixty": 6600,
      "saluted": 6601,
      "protection": 6602,
      "_Eve_": 6603,
      "profession": 6604,
      "indiffer": 6605,
      "celebrated": 6606,
      "platform": 6607,
      "Zodang": 6608,
      "59": 6609,
      "Fate": 6610,
      "Gray": 6611,
      "Ke": 6612,
      "Law": 6613,
      "None": 6614,
      "UN": 6615,
      "Vass": 6616,
      "eem": 6617,
      "swore": 6618,
      "vital": 6619,
      "zes": 6620,
      "thread": 6621,
      "tored": 6622,
      "roaring": 6623,
      "idle": 6624,
      "iries": 6625,
      "liking": 6626,
      "local": 6627,
      "myst": 6628,
      "defe": 6629,
      "mock": 6630,
      "foam": 6631,
      "faire": 6632,
      "illust": 6633,
      "spy": 6634,
      "Inst": 6635,
      "cleared": 6636,
      "treach": 6637,
      "cylind": 6638,
      "Toto": 6639,
      "consist": 6640,
      "Stutely": 6641,
      "skir": 6642,
      "block": 6643,
      "presents": 6644,
      "beauties": 6645,
      "bowl": 6646,
      "fortunately": 6647,
      "Island": 6648,
      "streams": 6649,
      "Frenchman": 6650,
      "prepare": 6651,
      "bench": 6652,
      "dwelling": 6653,
      "Kuan": 6654,
      "neighbourhood": 6655,
      "plateau": 6656,
      "receiving": 6657,
      "invention": 6658,
      "Buddhis": 6659,
      "Claud": 6660,
      "tidings": 6661,
      "60": 6662,
      "Che": 6663,
      "Eron": 6664,
      "Hon": 6665,
      "Kan": 6666,
      "Light": 6667,
      "Swi": 6668,
      "Sal": 6669,
      "Sax": 6670,
      "Te": 6671,
      "cular": 6672,
      "kna": 6673,
      "mul": 6674,
      "nes": 6675,
      "ucket": 6676,
      "retire": 6677,
      "envy": 6678,
      "urance": 6679,
      "weed": 6680,
      "hoping": 6681,
      "ruined": 6682,
      "affect": 6683,
      "oping": 6684,
      "discourse": 6685,
      "newsp": 6686,
      "guided": 6687,
      "warned": 6688,
      "winding": 6689,
      "silently": 6690,
      "blazing": 6691,
      "gravely": 6692,
      "Uncle": 6693,
      "bells": 6694,
      "sharply": 6695,
      "pursue": 6696,
      "curiously": 6697,
      "reflected": 6698,
      "lux": 6699,
      "sprung": 6700,
      "cellar": 6701,
      "Please": 6702,
      "jacket": 6703,
      "sympathy": 6704,
      "Hunter": 6705,
      "Nantucket": 6706,
      "extremity": 6707,
      "desolate": 6708,
      "conviction": 6709,
      "domestic": 6710,
      "September": 6711,
      "Erona": 6712,
      "22": 6713,
      "Cal": 6714,
      "Ja": 6715,
      "VII": 6716,
      "_D": 6717,
      "dumb": 6718,
      "gown": 6719,
      "ras": 6720,
      "tones": 6721,
      "ont": 6722,
      "lla": 6723,
      "becomes": 6724,
      "chast": 6725,
      "veins": 6726,
      "forman": 6727,
      "sober": 6728,
      "dee": 6729,
      "neat": 6730,
      "doings": 6731,
      "resound": 6732,
      "handle": 6733,
      "stole": 6734,
      "offence": 6735,
      "closing": 6736,
      "mert": 6737,
      "phen": 6738,
      "lads": 6739,
      "countries": 6740,
      "maintain": 6741,
      "corn": 6742,
      "hopeless": 6743,
      "remaining": 6744,
      "captive": 6745,
      "mouths": 6746,
      "assembled": 6747,
      "repeat": 6748,
      "spiritual": 6749,
      "gleam": 6750,
      "dimin": 6751,
      "Jonah": 6752,
      "Memmert": 6753,
      "leisure": 6754,
      "Ang": 6755,
      "Over": 6756,
      "Res": 6757,
      "Smo": 6758,
      "Turn": 6759,
      "bat": 6760,
      "gor": 6761,
      "iance": 6762,
      "lend": 6763,
      "rash": 6764,
      "rons": 6765,
      "saddle": 6766,
      "stat": 6767,
      "haul": 6768,
      "unpleasant": 6769,
      "raising": 6770,
      "upright": 6771,
      "sullen": 6772,
      "gore": 6773,
      "whatsoever": 6774,
      "canvas": 6775,
      "stolen": 6776,
      "Ingram": 6777,
      "torrent": 6778,
      "earlier": 6779,
      "Chu": 6780,
      "Stu": 6781,
      "military": 6782,
      "elsewhere": 6783,
      "speeches": 6784,
      "threatened": 6785,
      "publ": 6786,
      "supplied": 6787,
      "radiant": 6788,
      "million": 6789,
      "ributed": 6790,
      "hospitality": 6791,
      "observation": 6792,
      "envelope": 6793,
      "benefit": 6794,
      "Yellowley": 6795,
      "universal": 6796,
      "haughty": 6797,
      "marvellous": 6798,
      "coursers": 6799,
      "Young": 6800,
      "Vassilan": 6801,
      "Ba": 6802,
      "DE": 6803,
      "HE": 6804,
      "Hur": 6805,
      "Kom": 6806,
      "March": 6807,
      "Whe": 6808,
      "fid": 6809,
      "groom": 6810,
      "lor": 6811,
      "lerable": 6812,
      "mix": 6813,
      "nonsense": 6814,
      "renow": 6815,
      "ghastly": 6816,
      "vex": 6817,
      "rian": 6818,
      "sul": 6819,
      "sheets": 6820,
      "agony": 6821,
      "exert": 6822,
      "wot": 6823,
      "appar": 6824,
      "cane": 6825,
      "disappointment": 6826,
      "granted": 6827,
      "longing": 6828,
      "vili": 6829,
      "trum": 6830,
      "stray": 6831,
      "watery": 6832,
      "center": 6833,
      "alongside": 6834,
      "sands": 6835,
      "chanced": 6836,
      "wildly": 6837,
      "ridic": 6838,
      "Princess": 6839,
      "griev": 6840,
      "Leth": 6841,
      "sorrows": 6842,
      "pitch": 6843,
      "bourn": 6844,
      "shouting": 6845,
      "leaping": 6846,
      "Westra": 6847,
      "consciousness": 6848,
      "inquiry": 6849,
      "whistle": 6850,
      "roused": 6851,
      "lamps": 6852,
      "scheme": 6853,
      "quisite": 6854,
      "javelin": 6855,
      "barrass": 6856,
      "\"=": 6857,
      "37": 6858,
      "Dutch": 6859,
      "Western": 6860,
      "_that": 6861,
      "_you_": 6862,
      "dru": 6863,
      "damp": 6864,
      "patch": 6865,
      "recon": 6866,
      "ingen": 6867,
      "owl": 6868,
      "alming": 6869,
      "rifle": 6870,
      "sau": 6871,
      "button": 6872,
      "conject": 6873,
      "fox": 6874,
      "exquisite": 6875,
      "holes": 6876,
      "boot": 6877,
      "oppress": 6878,
      "bler": 6879,
      "wherefore": 6880,
      "dismay": 6881,
      "navy": 6882,
      "bert": 6883,
      "embarrass": 6884,
      "breathed": 6885,
      "awfully": 6886,
      "Godalming": 6887,
      "ceiving": 6888,
      "ventured": 6889,
      "pretend": 6890,
      "lawyer": 6891,
      "swam": 6892,
      "villain": 6893,
      "falcon": 6894,
      "travelled": 6895,
      "succour": 6896,
      "folks": 6897,
      "Longbourn": 6898,
      "sorely": 6899,
      "frequent": 6900,
      "distinguish": 6901,
      "wolves": 6902,
      "vehement": 6903,
      "enterprise": 6904,
      "Quincey": 6905,
      "Shakespe": 6906,
      "Grace": 6907,
      "ect": 6908,
      "hounds": 6909,
      "wan": 6910,
      "torious": 6911,
      "irs": 6912,
      "ural": 6913,
      "copy": 6914,
      "mod": 6915,
      "forever": 6916,
      "pling": 6917,
      "blown": 6918,
      "bleness": 6919,
      "goods": 6920,
      "mons": 6921,
      "tells": 6922,
      "horri": 6923,
      "parties": 6924,
      "distra": 6925,
      "rents": 6926,
      "helmet": 6927,
      "plains": 6928,
      "strife": 6929,
      "sweetness": 6930,
      "transport": 6931,
      "devoted": 6932,
      "delicious": 6933,
      "garments": 6934,
      "hostile": 6935,
      "badly": 6936,
      "pulling": 6937,
      "loudly": 6938,
      "travellers": 6939,
      "enjoyed": 6940,
      "basin": 6941,
      "suggestion": 6942,
      "nurser": 6943,
      "darted": 6944,
      "protect": 6945,
      "Balin": 6946,
      "scale": 6947,
      "prevailed": 6948,
      "Astok": 6949,
      "tragedy": 6950,
      "Central": 6951,
      "Argalus": 6952,
      "Shakespeare": 6953,
      "46": 6954,
      "Ev": 6955,
      "Emp": 6956,
      "Hold": 6957,
      "Ilion": 6958,
      "Mme": 6959,
      "Norton": 6960,
      "Sm": 6961,
      "hull": 6962,
      "asy": 6963,
      "imprison": 6964,
      "peep": 6965,
      "manly": 6966,
      "laps": 6967,
      "causes": 6968,
      "inkling": 6969,
      "gles": 6970,
      "offering": 6971,
      "eyel": 6972,
      "interview": 6973,
      "hearth": 6974,
      "brazen": 6975,
      "diff": 6976,
      "crust": 6977,
      "archite": 6978,
      "Holy": 6979,
      "expectation": 6980,
      "constit": 6981,
      "END": 6982,
      "climb": 6983,
      "basket": 6984,
      "impatience": 6985,
      "sacrific": 6986,
      "operation": 6987,
      "jealousy": 6988,
      "compelled": 6989,
      "rejoiced": 6990,
      "seamen": 6991,
      "Scarlet": 6992,
      "reproach": 6993,
      "district": 6994,
      "Commander": 6995,
      ".—": 6996,
      "Porter": 6997,
      "Rep": 6998,
      "bind": 6999,
      "dun": 7000,
      "fant": 7001,
      "lou": 7002,
      "nic": 7003,
      "oes": 7004,
      "ole": 7005,
      "sending": 7006,
      "waking": 7007,
      "wives": 7008,
      "alarmed": 7009,
      "soo": 7010,
      "unworthy": 7011,
      "quay": 7012,
      "rescue": 7013,
      "indis": 7014,
      "performan": 7015,
      "worry": 7016,
      "hom": 7017,
      "theirs": 7018,
      "Whatever": 7019,
      "displayed": 7020,
      "ully": 7021,
      "merch": 7022,
      "courte": 7023,
      "awk": 7024,
      "misfortune": 7025,
      "sweat": 7026,
      "central": 7027,
      "sweetly": 7028,
      "signific": 7029,
      "leads": 7030,
      "squad": 7031,
      "incere": 7032,
      "blowing": 7033,
      "staircase": 7034,
      "instruments": 7035,
      "knock": 7036,
      "tremendous": 7037,
      "Kalander": 7038,
      "Nestor": 7039,
      "deemed": 7040,
      "nursery": 7041,
      "./": 7042,
      "1st": 7043,
      "Fire": 7044,
      "Gab": 7045,
      "Get": 7046,
      "Ori": 7047,
      "Port": 7048,
      "Table": 7049,
      "bust": 7050,
      "danced": 7051,
      "iots": 7052,
      "kney": 7053,
      "pag": 7054,
      "rone": 7055,
      "vit": 7056,
      "viously": 7057,
      "——”": 7058,
      "inated": 7059,
      "anon": 7060,
      "rejoined": 7061,
      "hay": 7062,
      "mel": 7063,
      "riel": 7064,
      "urs": 7065,
      "upwards": 7066,
      "shan": 7067,
      "shru": 7068,
      "areth": 7069,
      "resign": 7070,
      "permission": 7071,
      "endless": 7072,
      "foremost": 7073,
      "oped": 7074,
      "stomach": 7075,
      "glare": 7076,
      "pressure": 7077,
      "cheese": 7078,
      "fero": 7079,
      "wonted": 7080,
      "curse": 7081,
      "version": 7082,
      "uttermost": 7083,
      "relations": 7084,
      "Moby": 7085,
      "Orkney": 7086,
      "changes": 7087,
      "examination": 7088,
      "songs": 7089,
      "spectacle": 7090,
      "eastward": 7091,
      "Scottish": 7092,
      "springs": 7093,
      "True": 7094,
      "Burden": 7095,
      "swimming": 7096,
      "WHI": 7097,
      "Tinker": 7098,
      "precisely": 7099,
      "sofa": 7100,
      "eloqu": 7101,
      "Accord": 7102,
      "neighbours": 7103,
      "Bild": 7104,
      "Day": 7105,
      "PH": 7106,
      "Swer": 7107,
      "bite": 7108,
      "gments": 7109,
      "jar": 7110,
      "nought": 7111,
      "rs": 7112,
      "vir": 7113,
      "repose": 7114,
      "edition": 7115,
      "ensu": 7116,
      "members": 7117,
      "wasted": 7118,
      "tile": 7119,
      "containing": 7120,
      "ilities": 7121,
      "restored": 7122,
      "illum": 7123,
      "selfish": 7124,
      "anyway": 7125,
      "ountains": 7126,
      "printed": 7127,
      "abouts": 7128,
      "carri": 7129,
      "Atrides": 7130,
      "slender": 7131,
      "sleepy": 7132,
      "ornament": 7133,
      "trous": 7134,
      "legends": 7135,
      "couch": 7136,
      "dropping": 7137,
      "dral": 7138,
      "relation": 7139,
      "humanity": 7140,
      "Philip": 7141,
      "habits": 7142,
      "fifth": 7143,
      "virtues": 7144,
      "invitation": 7145,
      "labours": 7146,
      "duties": 7147,
      "malice": 7148,
      "funny": 7149,
      "Satur": 7150,
      "recognised": 7151,
      "harpoon": 7152,
      "romantic": 7153,
      "reserved": 7154,
      "physical": 7155,
      "Egypt": 7156,
      "abandoned": 7157,
      "granite": 7158,
      "awkward": 7159,
      "WHICH": 7160,
      "48": 7161,
      "Bone": 7162,
      "ION": 7163,
      "Jup": 7164,
      "List": 7165,
      "Sever": 7166,
      "crou": 7167,
      "pig": 7168,
      "tread": 7169,
      "rels": 7170,
      "arrest": 7171,
      "wire": 7172,
      "ceiling": 7173,
      "entreat": 7174,
      "hermit": 7175,
      "undoubted": 7176,
      "wels": 7177,
      "shill": 7178,
      "shell": 7179,
      "fath": 7180,
      "faults": 7181,
      "thereby": 7182,
      "sped": 7183,
      "yourselves": 7184,
      "stores": 7185,
      "disgust": 7186,
      "flatter": 7187,
      "seriously": 7188,
      "Chang": 7189,
      "guilt": 7190,
      "restless": 7191,
      "beds": 7192,
      "finds": 7193,
      "State": 7194,
      "writer": 7195,
      "People": 7196,
      "grounds": 7197,
      "honourable": 7198,
      "bargain": 7199,
      "Whom": 7200,
      "seconds": 7201,
      "fortunes": 7202,
      "Dead": 7203,
      "scarlet": 7204,
      "favourable": 7205,
      "Shên": 7206,
      "brick": 7207,
      "successful": 7208,
      "Prov": 7209,
      "social": 7210,
      "lodged": 7211,
      "rades": 7212,
      "collected": 7213,
      "procession": 7214,
      "Palace": 7215,
      "NOT": 7216,
      "leagues": 7217,
      "skeleton": 7218,
      "Japan": 7219,
      "45": 7220,
      ";[": 7221,
      "LO": 7222,
      "Ret": 7223,
      "Sel": 7224,
      "Vas": 7225,
      "_The": 7226,
      "bun": 7227,
      "bered": 7228,
      "ec": 7229,
      "pall": 7230,
      "rus": 7231,
      "tite": 7232,
      "urious": 7233,
      "whel": 7234,
      "xx": 7235,
      "yaw": 7236,
      "inth": 7237,
      "angel": 7238,
      "entit": 7239,
      "dol": 7240,
      "worshi": 7241,
      "greed": 7242,
      "afterward": 7243,
      "partner": 7244,
      "lette": 7245,
      "appetite": 7246,
      "strate": 7247,
      "fortnight": 7248,
      "writ": 7249,
      "pia": 7250,
      "crushed": 7251,
      "floated": 7252,
      "harsh": 7253,
      "volume": 7254,
      "towns": 7255,
      "axe": 7256,
      "maids": 7257,
      "characters": 7258,
      "yielding": 7259,
      "deserve": 7260,
      "permit": 7261,
      "sickness": 7262,
      "stirring": 7263,
      "ascend": 7264,
      "Everything": 7265,
      "kissing": 7266,
      "Meantime": 7267,
      "Court": 7268,
      "sinking": 7269,
      "prevail": 7270,
      "stagg": 7271,
      "electric": 7272,
      "specim": 7273,
      "frantic": 7274,
      "Swift": 7275,
      "Swertha": 7276,
      "Jupiter": 7277,
      "Ac": 7278,
      "Bl": 7279,
      "Bu": 7280,
      "Ere": 7281,
      "Gates": 7282,
      "House": 7283,
      "Pian": 7284,
      "PAR": 7285,
      "hen": 7286,
      "lane": 7287,
      "pred": 7288,
      "push": 7289,
      "parent": 7290,
      "uct": 7291,
      "thetic": 7292,
      "is_": 7293,
      "hee": 7294,
      "heel": 7295,
      "haunted": 7296,
      "termin": 7297,
      "aine": 7298,
      "erect": 7299,
      "butt": 7300,
      "ested": 7301,
      "perish": 7302,
      "boiling": 7303,
      "problem": 7304,
      "overthrow": 7305,
      "display": 7306,
      "civili": 7307,
      "tedious": 7308,
      "backward": 7309,
      "intend": 7310,
      "closer": 7311,
      "farr": 7312,
      "strand": 7313,
      "Art": 7314,
      "chances": 7315,
      "Anti": 7316,
      "harp": 7317,
      "dreaming": 7318,
      "penny": 7319,
      "secrets": 7320,
      "vari": 7321,
      "completed": 7322,
      "respectable": 7323,
      "trusted": 7324,
      "XXX": 7325,
      "shields": 7326,
      "intellect": 7327,
      "anticip": 7328,
      "supported": 7329,
      "issued": 7330,
      "encountered": 7331,
      "Taoist": 7332,
      "dirty": 7333,
      "scenes": 7334,
      "Fitz": 7335,
      "Garvey": 7336,
      "Saturday": 7337,
      "Piani": 7338,
      "?’": 7339,
      "Cross": 7340,
      "Dem": 7341,
      "Hy": 7342,
      "Pan": 7343,
      "Rue": 7344,
      "Sto": 7345,
      "gat": 7346,
      "gus": 7347,
      "sly": 7348,
      "sincere": 7349,
      "thief": 7350,
      "onder": 7351,
      "stan": 7352,
      "withdrew": 7353,
      "alling": 7354,
      "decre": 7355,
      "detail": 7356,
      "upset": 7357,
      "ambo": 7358,
      "resent": 7359,
      "comrades": 7360,
      "aph": 7361,
      "apple": 7362,
      "firmed": 7363,
      "emin": 7364,
      "bris": 7365,
      "Chên": 7366,
      "Forth": 7367,
      "creation": 7368,
      "creeping": 7369,
      "chains": 7370,
      "solitude": 7371,
      "privile": 7372,
      "ornaments": 7373,
      "atives": 7374,
      "Leviathan": 7375,
      "lords": 7376,
      "arrive": 7377,
      "characteristic": 7378,
      "sadly": 7379,
      "Phœ": 7380,
      "unchback": 7381,
      "lodging": 7382,
      "priests": 7383,
      "comparison": 7384,
      "dependent": 7385,
      "seventy": 7386,
      "apparel": 7387,
      "security": 7388,
      "Gener": 7389,
      "Pot": 7390,
      "Wind": 7391,
      "bars": 7392,
      "honey": 7393,
      "rade": 7394,
      "sket": 7395,
      "wars": 7396,
      "ya": 7397,
      "recent": 7398,
      "reminded": 7399,
      "arrested": 7400,
      "likes": 7401,
      "verge": 7402,
      "union": 7403,
      "unseen": 7404,
      "united": 7405,
      "losing": 7406,
      "raw": 7407,
      "tival": 7408,
      "shirt": 7409,
      "quaint": 7410,
      "redu": 7411,
      "rubbed": 7412,
      "blan": 7413,
      "brute": 7414,
      "tram": 7415,
      "series": 7416,
      "morn": 7417,
      "joke": 7418,
      "joining": 7419,
      "bodily": 7420,
      "answering": 7421,
      "brace": 7422,
      "temples": 7423,
      "Within": 7424,
      "ringing": 7425,
      "slumber": 7426,
      "confli": 7427,
      "confident": 7428,
      "eyebrows": 7429,
      "signed": 7430,
      "limb": 7431,
      "remarks": 7432,
      "violently": 7433,
      "cropia": 7434,
      "globe": 7435,
      "blessing": 7436,
      "funeral": 7437,
      "constantly": 7438,
      "connection": 7439,
      "uniform": 7440,
      "guessed": 7441,
      "clamation": 7442,
      "exerc": 7443,
      "slope": 7444,
      "indicated": 7445,
      "inferior": 7446,
      "vivid": 7447,
      "snatched": 7448,
      "struggling": 7449,
      "apprehension": 7450,
      "liquid": 7451,
      "Tario": 7452,
      "Cecropia": 7453,
      "Div": 7454,
      "Fin": 7455,
      "Pow": 7456,
      "Part": 7457,
      "Sam": 7458,
      "Spr": 7459,
      "Ver": 7460,
      "avo": 7461,
      "eag": 7462,
      "gang": 7463,
      "hue": 7464,
      "job": 7465,
      "tents": 7466,
      "tables": 7467,
      "vouch": 7468,
      "remed": 7469,
      "remor": 7470,
      "ensible": 7471,
      "token": 7472,
      "ascertain": 7473,
      "escap": 7474,
      "methinks": 7475,
      "herald": 7476,
      "unuch": 7477,
      "rivers": 7478,
      "depri": 7479,
      "mode": 7480,
      "upward": 7481,
      "ody": 7482,
      "conj": 7483,
      "consp": 7484,
      "esteem": 7485,
      "dole": 7486,
      "existed": 7487,
      "exhibit": 7488,
      "icy": 7489,
      "wherever": 7490,
      "clut": 7491,
      "clung": 7492,
      "scrup": 7493,
      "tyrant": 7494,
      "sings": 7495,
      "vived": 7496,
      "bedroom": 7497,
      "happily": 7498,
      "household": 7499,
      "kinds": 7500,
      "genial": 7501,
      "wonders": 7502,
      "easier": 7503,
      "elephant": 7504,
      "Nether": 7505,
      "limits": 7506,
      "balls": 7507,
      "sighs": 7508,
      "eldest": 7509,
      "infernal": 7510,
      "contempl": 7511,
      "harpooneer": 7512,
      "discern": 7513,
      "Spanish": 7514,
      "impulse": 7515,
      "Lincol": 7516,
      "condemned": 7517,
      "Bildad": 7518,
      "trousers": 7519,
      "56": 7520,
      "Bill": 7521,
      "Bel": 7522,
      "CK": 7523,
      "RA": 7524,
      "Row": 7525,
      "tug": 7526,
      "remind": 7527,
      "remove": 7528,
      "isher": 7529,
      "ases": 7530,
      "hears": 7531,
      "heath": 7532,
      "secured": 7533,
      "chie": 7534,
      "root": 7535,
      "unjust": 7536,
      "decent": 7537,
      "geo": 7538,
      "peas": 7539,
      "managers": 7540,
      "contain": 7541,
      "ifully": 7542,
      "facing": 7543,
      "--”": 7544,
      "overhead": 7545,
      "handkerchief": 7546,
      "wherewith": 7547,
      "chess": 7548,
      "lasting": 7549,
      "happens": 7550,
      "jewels": 7551,
      "Station": 7552,
      "ggy": 7553,
      "speaks": 7554,
      "regain": 7555,
      "Minister": 7556,
      "dreamed": 7557,
      "element": 7558,
      "remembering": 7559,
      "examining": 7560,
      "strove": 7561,
      "forests": 7562,
      "murdered": 7563,
      "produce": 7564,
      "threatening": 7565,
      "stained": 7566,
      "injured": 7567,
      "civility": 7568,
      "tremble": 7569,
      "Tenente": 7570,
      "develop": 7571,
      "stumbled": 7572,
      "Trave": 7573,
      "dollars": 7574,
      "Latin": 7575,
      "Russi": 7576,
      "bulwarks": 7577,
      "_that_": 7578,
      "louder": 7579,
      "Lincoln": 7580,
      "49": 7581,
      "Cel": 7582,
      "Coun": 7583,
      "Kitty": 7584,
      "faster": 7585,
      "faded": 7586,
      "mered": 7587,
      "pages": 7588,
      "thic": 7589,
      "inher": 7590,
      "ential": 7591,
      "liken": 7592,
      "unwilling": 7593,
      "coats": 7594,
      "usp": 7595,
      "det": 7596,
      "negro": 7597,
      "accursed": 7598,
      "ruth": 7599,
      "moreover": 7600,
      "propri": 7601,
      "planted": 7602,
      "yeoman": 7603,
      "cier": 7604,
      "downward": 7605,
      "placing": 7606,
      "preferred": 7607,
      "monsters": 7608,
      "awakened": 7609,
      "cuit": 7610,
      "acts": 7611,
      "keeps": 7612,
      "honours": 7613,
      "velvet": 7614,
      "peaceful": 7615,
      "proceeding": 7616,
      "suspended": 7617,
      "mirth": 7618,
      "hunter": 7619,
      "breadth": 7620,
      "consented": 7621,
      "desiring": 7622,
      "Pallas": 7623,
      "romance": 7624,
      "involved": 7625,
      "Between": 7626,
      "ilgrimage": 7627,
      "Badr": 7628,
      "ranean": 7629,
      "Bonello": 7630,
      "Asi": 7631,
      "Bre": 7632,
      "Cl": 7633,
      "Cat": 7634,
      "Eastern": 7635,
      "Sur": 7636,
      "cit": 7637,
      "card": 7638,
      "eastern": 7639,
      "fted": 7640,
      "gil": 7641,
      "lour": 7642,
      "mum": 7643,
      "och": 7644,
      "sie": 7645,
      "tap": 7646,
      "wag": 7647,
      "thresh": 7648,
      "rebell": 7649,
      "enabled": 7650,
      "toils": 7651,
      "ribs": 7652,
      "mob": 7653,
      "moist": 7654,
      "shr": 7655,
      "manager": 7656,
      "conceive": 7657,
      "estim": 7658,
      "exposed": 7659,
      "thereal": 7660,
      "elbow": 7661,
      "downstairs": 7662,
      "armor": 7663,
      "begins": 7664,
      "joyou": 7665,
      "diary": 7666,
      "majesty": 7667,
      "honoured": 7668,
      "crash": 7669,
      "midt": 7670,
      "realised": 7671,
      "realized": 7672,
      "questioned": 7673,
      "swinging": 7674,
      "Lives": 7675,
      "dreaded": 7676,
      "decay": 7677,
      "expecting": 7678,
      "Lucas": 7679,
      "victor": 7680,
      "OUR": 7681,
      "polished": 7682,
      "policeman": 7683,
      "flick": 7684,
      "Buddha": 7685,
      "adopted": 7686,
      "Schmidt": 7687,
      "Jour": 7688,
      "Sou": 7689,
      "Ter": 7690,
      "Yin": 7691,
      "eleg": 7692,
      "fum": 7693,
      "park": 7694,
      "ux": 7695,
      "thigh": 7696,
      "inscri": 7697,
      "reel": 7698,
      "secre": 7699,
      "rolls": 7700,
      "ality": 7701,
      "forti": 7702,
      "withstanding": 7703,
      "uncomfortable": 7704,
      "rice": 7705,
      "amb": 7706,
      "amiable": 7707,
      "hoarse": 7708,
      "prosper": 7709,
      "disagreeable": 7710,
      "desk": 7711,
      "Injun": 7712,
      "navig": 7713,
      "brim": 7714,
      "torted": 7715,
      "monu": 7716,
      "lowly": 7717,
      "market": 7718,
      "minstre": 7719,
      "engines": 7720,
      "challen": 7721,
      "consort": 7722,
      "tempor": 7723,
      "purchase": 7724,
      "sunrise": 7725,
      "Peleg": 7726,
      "subter": 7727,
      "Alpine": 7728,
      "corrid": 7729,
      "needle": 7730,
      "trim": 7731,
      "Cook": 7732,
      "tively": 7733,
      "syll": 7734,
      "decide": 7735,
      "qualities": 7736,
      "determine": 7737,
      "Elliot": 7738,
      "assume": 7739,
      "learnt": 7740,
      "instructions": 7741,
      "increasing": 7742,
      "compliment": 7743,
      "washing": 7744,
      "preserve": 7745,
      "millions": 7746,
      "July": 7747,
      "Against": 7748,
      "gulf": 7749,
      "Netherfield": 7750,
      "57": 7751,
      "Abo": 7752,
      "Bene": 7753,
      "Came": 7754,
      "Ga": 7755,
      "Len": 7756,
      "Mid": 7757,
      "Put": 7758,
      "Su": 7759,
      "Vic": 7760,
      "hedge": 7761,
      "ja": 7762,
      "mam": 7763,
      "plight": 7764,
      "plot": 7765,
      "án": 7766,
      "ero": 7767,
      "edges": 7768,
      "itudes": 7769,
      "sem": 7770,
      "histori": 7771,
      "impet": 7772,
      "loath": 7773,
      "outs": 7774,
      "Throne": 7775,
      "venue": 7776,
      "stove": 7777,
      "club": 7778,
      "prec": 7779,
      "lowered": 7780,
      "horrors": 7781,
      "reputation": 7782,
      "dict": 7783,
      "gian": 7784,
      "laden": 7785,
      "chauf": 7786,
      "skil": 7787,
      "feels": 7788,
      "avenue": 7789,
      "trifle": 7790,
      "doubts": 7791,
      "services": 7792,
      "Rome": 7793,
      "elements": 7794,
      "rocky": 7795,
      "breathless": 7796,
      "ification": 7797,
      "speedily": 7798,
      "spreading": 7799,
      "eighteen": 7800,
      "determination": 7801,
      "dusty": 7802,
      "chairs": 7803,
      "massive": 7804,
      "profit": 7805,
      "confessed": 7806,
      "churchyard": 7807,
      "dainty": 7808,
      "winged": 7809,
      "bitterly": 7810,
      "birthday": 7811,
      "conquered": 7812,
      "marvelled": 7813,
      "mourning": 7814,
      "measured": 7815,
      "conveyed": 7816,
      "angels": 7817,
      "stooped": 7818,
      "physic": 7819,
      "photo": 7820,
      "fatigue": 7821,
      "medicine": 7822,
      "devotion": 7823,
      "Lethbridge": 7824,
      "chauffe": 7825,
      "Ber": 7826,
      "Bry": 7827,
      "CON": 7828,
      "Ka": 7829,
      "Key": 7830,
      "Must": 7831,
      "Pac": 7832,
      "Pip": 7833,
      "Sp": 7834,
      "dies": 7835,
      "leness": 7836,
      "muf": 7837,
      "pang": 7838,
      "inspir": 7839,
      "isles": 7840,
      "choked": 7841,
      "robes": 7842,
      "impressed": 7843,
      "lia": 7844,
      "unlike": 7845,
      "uscript": 7846,
      "deceive": 7847,
      "pets": 7848,
      "suitable": 7849,
      "teles": 7850,
      "appla": 7851,
      "accounted": 7852,
      "assurance": 7853,
      "bleeding": 7854,
      "clum": 7855,
      "obvious": 7856,
      "Into": 7857,
      "checked": 7858,
      "serpent": 7859,
      "clothed": 7860,
      "treason": 7861,
      "insisted": 7862,
      "southern": 7863,
      "effe": 7864,
      "genu": 7865,
      "forming": 7866,
      "rises": 7867,
      "masters": 7868,
      "whalemen": 7869,
      "column": 7870,
      "madam": 7871,
      "pitiful": 7872,
      "examine": 7873,
      "lantic": 7874,
      "hatred": 7875,
      "declare": 7876,
      "hateful": 7877,
      "darts": 7878,
      "difficulties": 7879,
      "artific": 7880,
      "collar": 7881,
      "route": 7882,
      "obstin": 7883,
      "hawk": 7884,
      "cigar": 7885,
      "absorbed": 7886,
      "Elliott": 7887,
      "Back": 7888,
      "CT": 7889,
      "Mount": 7890,
      "Off": 7891,
      "Wal": 7892,
      "batter": 7893,
      "dagger": 7894,
      "eter": 7895,
      "hut": 7896,
      "kens": 7897,
      "mare": 7898,
      "ano": 7899,
      "recalled": 7900,
      "ena": 7901,
      "atus": 7902,
      "tot": 7903,
      "itie": 7904,
      "stature": 7905,
      "altar": 7906,
      "lithe": 7907,
      "lored": 7908,
      "raz": 7909,
      "manuscript": 7910,
      "consol": 7911,
      "Hear": 7912,
      "assert": 7913,
      "disappointed": 7914,
      "cians": 7915,
      "offended": 7916,
      "embro": 7917,
      "embark": 7918,
      "lasted": 7919,
      "lastly": 7920,
      "phil": 7921,
      "chapter": 7922,
      "pile": 7923,
      "acting": 7924,
      "barge": 7925,
      "Does": 7926,
      "pretended": 7927,
      "Deep": 7928,
      "symp": 7929,
      "boards": 7930,
      "originally": 7931,
      "Phil": 7932,
      "faintly": 7933,
      "bags": 7934,
      "patron": 7935,
      "principle": 7936,
      "hunted": 7937,
      "Geor": 7938,
      "Juno": 7939,
      "symbo": 7940,
      "Nights": 7941,
      "billows": 7942,
      "weren": 7943,
      "bonnet": 7944,
      "endeavour": 7945,
      "indifference": 7946,
      "visitors": 7947,
      "Golden": 7948,
      "alighted": 7949,
      "Lothar": 7950,
      "treasures": 7951,
      "utenant": 7952,
      "quantity": 7953,
      "fairest": 7954,
      "cylinder": 7955,
      "Gabriel": 7956,
      "threshold": 7957,
      "43": 7958,
      "Air": 7959,
      "Ele": 7960,
      "Fif": 7961,
      "Grim": 7962,
      "NE": 7963,
      "Stop": 7964,
      "ffe": 7965,
      "fence": 7966,
      "franc": 7967,
      "gation": 7968,
      "joust": 7969,
      "sü": 7970,
      "trun": 7971,
      "uary": 7972,
      "toy": 7973,
      "chuck": 7974,
      "forbear": 7975,
      "advers": 7976,
      "rapt": 7977,
      "decor": 7978,
      "detest": 7979,
      "foli": 7980,
      "restore": 7981,
      "ulars": 7982,
      "accoun": 7983,
      "hereafter": 7984,
      "provisions": 7985,
      "dislike": 7986,
      "howling": 7987,
      "parlour": 7988,
      "natives": 7989,
      "buoy": 7990,
      "addressing": 7991,
      "formid": 7992,
      "subsequ": 7993,
      "commonly": 7994,
      "flock": 7995,
      "stripped": 7996,
      "appropri": 7997,
      "sixteen": 7998,
      "framed": 7999
    },
    "merges": [
      [
        "t",
        "h"
      ],
      [
        "th",
        "e"
      ],
      [
        "i",
        "n"
      ],
      [
        "a",
        "n"
      ],
      [
        "e",
        "r"
      ],
      [
        "o",
        "u"
      ],
      [
        "r",
        "e"
      ],
      [
        "e",
        "d"
      ],
      [
        "o",
        "n"
      ],
      [
        "e",
        "n"
      ],
      [
        "an",
        "d"
      ],
      [
        "a",
        "t"
      ],
      [
        "t",
        "o"
      ],
      [
        "i",
        "s"
      ],
      [
        "a",
        "s"
      ],
      [
        "o",
        "f"
      ],
      [
        "in",
        "g"
      ],
      [
        "o",
        "r"
      ],
      [
        "h",
        "e"
      ],
      [
        "a",
        "r"
      ],
      [
        "l",
        "l"
      ],
      [
        "e",
        "s"
      ],
      [
        "i",
        "t"
      ],
      [
        "s",
        "t"
      ],
      [
        "l",
        "e"
      ],
      [
        "h",
        "a"
      ],
      [
        "s",
        "e"
      ],
      [
        "m",
        "e"
      ],
      [
        "w",
        "h"
      ],
      [
        "b",
        "e"
      ],
      [
        "o",
        "w"
      ],
      [
        "c",
        "h"
      ],
      [
        "g",
        "h"
      ],
      [
        "w",
        "i"
      ],
      [
        "r",
        "o"
      ],
      [
        "i",
        "d"
      ],
      [
        "v",
        "e"
      ],
      [
        "c",
        "e"
      ],
      [
        "l",
        "d"
      ],
      [
        "l",
        "y"
      ],
      [
        "a",
        "l"
      ],
      [
        "w",
        "as"
      ],
      [
        "th",
        "at"
      ],
      [
        "n",
        "o"
      ],
      [
        "u",
        "t"
      ],
      [
        "h",
        "is"
      ],
      [
        "i",
        "r"
      ],
      [
        "f",
        "or"
      ],
      [
        "en",
        "t"
      ],
      [
        "i",
        "m"
      ],
      [
        "a",
        "d"
      ],
      [
        "wi",
        "th"
      ],
      [
        "l",
        "i"
      ],
      [
        "a",
        "y"
      ],
      [
        "gh",
        "t"
      ],
      [
        "v",
        "er"
      ],
      [
        "s",
        "o"
      ],
      [
        "y",
        "ou"
      ],
      [
        "a",
        "ll"
      ],
      [
        "h",
        "er"
      ],
      [
        "u",
        "n"
      ],
      [
        "r",
        "i"
      ],
      [
        "i",
        "on"
      ],
      [
        "s",
        "a"
      ],
      [
        "t",
        "er"
      ],
      [
        "l",
        "o"
      ],
      [
        "u",
        "r"
      ],
      [
        "r",
        "a"
      ],
      [
        "c",
        "o"
      ],
      [
        "w",
        "e"
      ],
      [
        "ha",
        "d"
      ],
      [
        "m",
        "y"
      ],
      [
        "no",
        "t"
      ],
      [
        "k",
        "e"
      ],
      [
        "u",
        "s"
      ],
      [
        "d",
        "e"
      ],
      [
        "ou",
        "ld"
      ],
      [
        "the",
        "r"
      ],
      [
        "n",
        "d"
      ],
      [
        "m",
        "o"
      ],
      [
        "a",
        "in"
      ],
      [
        "c",
        "k"
      ],
      [
        "er",
        "e"
      ],
      [
        "h",
        "im"
      ],
      [
        "u",
        "p"
      ],
      [
        "n",
        "e"
      ],
      [
        "f",
        "e"
      ],
      [
        "g",
        "e"
      ],
      [
        "T",
        "he"
      ],
      [
        "t",
        "i"
      ],
      [
        "s",
        "h"
      ],
      [
        "ou",
        "t"
      ],
      [
        "on",
        "e"
      ],
      [
        "o",
        "d"
      ],
      [
        "a",
        "b"
      ],
      [
        "p",
        "e"
      ],
      [
        "ou",
        "r"
      ],
      [
        "wh",
        "i"
      ],
      [
        "b",
        "ut"
      ],
      [
        "a",
        "m"
      ],
      [
        "c",
        "t"
      ],
      [
        "es",
        "s"
      ],
      [
        "s",
        "u"
      ],
      [
        "m",
        "an"
      ],
      [
        "a",
        "re"
      ],
      [
        "b",
        "y"
      ],
      [
        "ro",
        "m"
      ],
      [
        "p",
        "o"
      ],
      [
        "ha",
        "ve"
      ],
      [
        "c",
        "on"
      ],
      [
        "s",
        "he"
      ],
      [
        "ar",
        "d"
      ],
      [
        "i",
        "ght"
      ],
      [
        "g",
        "o"
      ],
      [
        "i",
        "l"
      ],
      [
        "sa",
        "id"
      ],
      [
        "n",
        "ow"
      ],
      [
        "whi",
        "ch"
      ],
      [
        "f",
        "rom"
      ],
      [
        "as",
        "t"
      ],
      [
        "l",
        "a"
      ],
      [
        "e",
        "t"
      ],
      [
        "f",
        "o"
      ],
      [
        "q",
        "u"
      ],
      [
        "c",
        "a"
      ],
      [
        "th",
        "is"
      ],
      [
        "i",
        "f"
      ],
      [
        "es",
        "t"
      ],
      [
        "d",
        "o"
      ],
      [
        "the",
        "y"
      ],
      [
        "wh",
        "o"
      ],
      [
        "re",
        "s"
      ],
      [
        "w",
        "ere"
      ],
      [
        "u",
        "l"
      ],
      [
        "in",
        "d"
      ],
      [
        "th",
        "ou"
      ],
      [
        "a",
        "g"
      ],
      [
        "ou",
        "nd"
      ],
      [
        "p",
        "er"
      ],
      [
        ".",
        "”"
      ],
      [
        "e",
        "x"
      ],
      [
        "en",
        "d"
      ],
      [
        "o",
        "k"
      ],
      [
        "ou",
        "s"
      ],
      [
        "ow",
        "n"
      ],
      [
        "se",
        "l"
      ],
      [
        "an",
        "t"
      ],
      [
        "on",
        "g"
      ],
      [
        "f",
        "a"
      ],
      [
        "ar",
        "t"
      ],
      [
        "u",
        "st"
      ],
      [
        "T",
        "h"
      ],
      [
        "t",
        "e"
      ],
      [
        "the",
        "m"
      ],
      [
        "se",
        "e"
      ],
      [
        "w",
        "or"
      ],
      [
        "i",
        "ll"
      ],
      [
        "co",
        "m"
      ],
      [
        "the",
        "re"
      ],
      [
        "h",
        "o"
      ],
      [
        "H",
        "e"
      ],
      [
        "b",
        "o"
      ],
      [
        "th",
        "ing"
      ],
      [
        "i",
        "c"
      ],
      [
        "-",
        "-"
      ],
      [
        "the",
        "ir"
      ],
      [
        "w",
        "ay"
      ],
      [
        "so",
        "me"
      ],
      [
        "at",
        "e"
      ],
      [
        "w",
        "ould"
      ],
      [
        "A",
        "nd"
      ],
      [
        "r",
        "y"
      ],
      [
        "d",
        "er"
      ],
      [
        "i",
        "e"
      ],
      [
        "w",
        "o"
      ],
      [
        "wh",
        "en"
      ],
      [
        "o",
        "ther"
      ],
      [
        "v",
        "en"
      ],
      [
        "at",
        "ion"
      ],
      [
        "ver",
        "y"
      ],
      [
        ",",
        "”"
      ],
      [
        "a",
        "k"
      ],
      [
        "a",
        "p"
      ],
      [
        "sel",
        "f"
      ],
      [
        "is",
        "t"
      ],
      [
        "re",
        "d"
      ],
      [
        "a",
        "c"
      ],
      [
        "g",
        "re"
      ],
      [
        "in",
        "e"
      ],
      [
        "wi",
        "ll"
      ],
      [
        "r",
        "u"
      ],
      [
        "wh",
        "at"
      ],
      [
        "er",
        "s"
      ],
      [
        "B",
        "ut"
      ],
      [
        "fo",
        "re"
      ],
      [
        "m",
        "ent"
      ],
      [
        "her",
        "e"
      ],
      [
        "s",
        "p"
      ],
      [
        "c",
        "ould"
      ],
      [
        ".",
        "\""
      ],
      [
        "is",
        "h"
      ],
      [
        "li",
        "ke"
      ],
      [
        "W",
        "h"
      ],
      [
        "id",
        "e"
      ],
      [
        "mo",
        "re"
      ],
      [
        "p",
        "ro"
      ],
      [
        "a",
        "f"
      ],
      [
        "it",
        "t"
      ],
      [
        "r",
        "ou"
      ],
      [
        "e",
        "l"
      ],
      [
        "e",
        "p"
      ],
      [
        "o",
        "p"
      ],
      [
        "be",
        "en"
      ],
      [
        "up",
        "on"
      ],
      [
        "k",
        "now"
      ],
      [
        "you",
        "r"
      ],
      [
        "r",
        "an"
      ],
      [
        "I",
        "t"
      ],
      [
        "an",
        "y"
      ],
      [
        "as",
        "s"
      ],
      [
        "i",
        "g"
      ],
      [
        "ou",
        "n"
      ],
      [
        "a",
        "ke"
      ],
      [
        "the",
        "n"
      ],
      [
        "c",
        "an"
      ],
      [
        "p",
        "l"
      ],
      [
        "ur",
        "n"
      ],
      [
        "s",
        "ha"
      ],
      [
        "u",
        "re"
      ],
      [
        "u",
        "m"
      ],
      [
        "th",
        "an"
      ],
      [
        "in",
        "to"
      ],
      [
        "o",
        "m"
      ],
      [
        "v",
        "ed"
      ],
      [
        "a",
        "ch"
      ],
      [
        "i",
        "ve"
      ],
      [
        "o",
        "ver"
      ],
      [
        "or",
        "t"
      ],
      [
        "en",
        "ce"
      ],
      [
        "it",
        "y"
      ],
      [
        "b",
        "le"
      ],
      [
        "lo",
        "ok"
      ],
      [
        "h",
        "and"
      ],
      [
        "m",
        "ed"
      ],
      [
        "d",
        "ay"
      ],
      [
        "ti",
        "me"
      ],
      [
        ",",
        "\""
      ],
      [
        "in",
        "k"
      ],
      [
        "s",
        "to"
      ],
      [
        "d",
        "id"
      ],
      [
        "it",
        "e"
      ],
      [
        "b",
        "l"
      ],
      [
        "an",
        "ce"
      ],
      [
        "ab",
        "le"
      ],
      [
        "p",
        "t"
      ],
      [
        "wh",
        "ere"
      ],
      [
        "ag",
        "ain"
      ],
      [
        "ca",
        "me"
      ],
      [
        "d",
        "is"
      ],
      [
        "g",
        "l"
      ],
      [
        "y",
        "e"
      ],
      [
        "c",
        "i"
      ],
      [
        "ad",
        "e"
      ],
      [
        "?",
        "”"
      ],
      [
        "gre",
        "at"
      ],
      [
        "o",
        "t"
      ],
      [
        "g",
        "r"
      ],
      [
        "c",
        "l"
      ],
      [
        "d",
        "own"
      ],
      [
        "p",
        "p"
      ],
      [
        "it",
        "s"
      ],
      [
        "a",
        "ck"
      ],
      [
        "re",
        "t"
      ],
      [
        "i",
        "re"
      ],
      [
        "n",
        "ight"
      ],
      [
        "s",
        "s"
      ],
      [
        "f",
        "ul"
      ],
      [
        "w",
        "ard"
      ],
      [
        "sh",
        "ould"
      ],
      [
        "re",
        "ad"
      ],
      [
        "p",
        "r"
      ],
      [
        "itt",
        "le"
      ],
      [
        "ab",
        "out"
      ],
      [
        "v",
        "es"
      ],
      [
        "s",
        "ay"
      ],
      [
        "an",
        "g"
      ],
      [
        "v",
        "ing"
      ],
      [
        "t",
        "ain"
      ],
      [
        "on",
        "ly"
      ],
      [
        "l",
        "ong"
      ],
      [
        "an",
        "s"
      ],
      [
        "re",
        "e"
      ],
      [
        "m",
        "en"
      ],
      [
        "li",
        "ght"
      ],
      [
        "p",
        "res"
      ],
      [
        "of",
        "f"
      ],
      [
        "be",
        "fore"
      ],
      [
        "e",
        "ver"
      ],
      [
        "mo",
        "st"
      ],
      [
        "co",
        "me"
      ],
      [
        "su",
        "ch"
      ],
      [
        "we",
        "ll"
      ],
      [
        "th",
        "y"
      ],
      [
        "i",
        "es"
      ],
      [
        "ar",
        "k"
      ],
      [
        "h",
        "ow"
      ],
      [
        "i",
        "ce"
      ],
      [
        "u",
        "se"
      ],
      [
        "ar",
        "s"
      ],
      [
        "n",
        "ess"
      ],
      [
        "d",
        "es"
      ],
      [
        "t",
        "ed"
      ],
      [
        "m",
        "ight"
      ],
      [
        "p",
        "le"
      ],
      [
        "u",
        "ll"
      ],
      [
        "ar",
        "m"
      ],
      [
        "l",
        "ittle"
      ],
      [
        "go",
        "od"
      ],
      [
        "u",
        "ch"
      ],
      [
        "he",
        "ad"
      ],
      [
        "all",
        "y"
      ],
      [
        "W",
        "e"
      ],
      [
        "o",
        "b"
      ],
      [
        "ri",
        "ed"
      ],
      [
        "a",
        "ge"
      ],
      [
        "m",
        "ust"
      ],
      [
        "f",
        "ir"
      ],
      [
        "af",
        "ter"
      ],
      [
        "s",
        "pe"
      ],
      [
        "a",
        "th"
      ],
      [
        "r",
        "ow"
      ],
      [
        "Th",
        "en"
      ],
      [
        "w",
        "ent"
      ],
      [
        "is",
        "e"
      ],
      [
        "wor",
        "d"
      ],
      [
        "M",
        "r"
      ],
      [
        "e",
        "y"
      ],
      [
        "h",
        "i"
      ],
      [
        "p",
        "art"
      ],
      [
        "l",
        "ess"
      ],
      [
        "un",
        "der"
      ],
      [
        "s",
        "c"
      ],
      [
        "m",
        "ade"
      ],
      [
        "t",
        "wo"
      ],
      [
        "I",
        "n"
      ],
      [
        "f",
        "l"
      ],
      [
        "l",
        "and"
      ],
      [
        "er",
        "ed"
      ],
      [
        "b",
        "ack"
      ],
      [
        "thou",
        "ght"
      ],
      [
        "n",
        "a"
      ],
      [
        "le",
        "t"
      ],
      [
        "v",
        "o"
      ],
      [
        "rou",
        "gh"
      ],
      [
        "th",
        "ink"
      ],
      [
        "f",
        "t"
      ],
      [
        "m",
        "ay"
      ],
      [
        "sha",
        "ll"
      ],
      [
        "m",
        "uch"
      ],
      [
        "at",
        "ed"
      ],
      [
        "p",
        "la"
      ],
      [
        "h",
        "as"
      ],
      [
        "n",
        "ing"
      ],
      [
        "ne",
        "w"
      ],
      [
        "o",
        "se"
      ],
      [
        "a",
        "ve"
      ],
      [
        "ll",
        "ow"
      ],
      [
        "ri",
        "ght"
      ],
      [
        "u",
        "e"
      ],
      [
        "ct",
        "ion"
      ],
      [
        "or",
        "d"
      ],
      [
        "fir",
        "st"
      ],
      [
        "S",
        "o"
      ],
      [
        "ne",
        "ver"
      ],
      [
        "t",
        "y"
      ],
      [
        "in",
        "t"
      ],
      [
        "thou",
        "gh"
      ],
      [
        "c",
        "oun"
      ],
      [
        "k",
        "ed"
      ],
      [
        "b",
        "er"
      ],
      [
        "i",
        "ck"
      ],
      [
        "p",
        "s"
      ],
      [
        "l",
        "ed"
      ],
      [
        "be",
        "t"
      ],
      [
        "e",
        "ven"
      ],
      [
        "p",
        "re"
      ],
      [
        "u",
        "d"
      ],
      [
        "o",
        "ld"
      ],
      [
        "e",
        "m"
      ],
      [
        "s",
        "ed"
      ],
      [
        "the",
        "se"
      ],
      [
        "b",
        "r"
      ],
      [
        "p",
        "ass"
      ],
      [
        "th",
        "rough"
      ],
      [
        "t",
        "ra"
      ],
      [
        "c",
        "he"
      ],
      [
        "w",
        "at"
      ],
      [
        "Y",
        "ou"
      ],
      [
        "c",
        "ed"
      ],
      [
        "to",
        "r"
      ],
      [
        "be",
        "g"
      ],
      [
        "s",
        "er"
      ],
      [
        "c",
        "lo"
      ],
      [
        "i",
        "ous"
      ],
      [
        "sa",
        "w"
      ],
      [
        "ey",
        "es"
      ],
      [
        "k",
        "ing"
      ],
      [
        "c",
        "le"
      ],
      [
        "ge",
        "t"
      ],
      [
        "y",
        "et"
      ],
      [
        "ar",
        "y"
      ],
      [
        "to",
        "o"
      ],
      [
        "p",
        "a"
      ],
      [
        "t",
        "urn"
      ],
      [
        "T",
        "here"
      ],
      [
        "b",
        "ro"
      ],
      [
        "s",
        "ide"
      ],
      [
        "him",
        "self"
      ],
      [
        "whi",
        "le"
      ],
      [
        "!",
        "”"
      ],
      [
        "l",
        "t"
      ],
      [
        "l",
        "ast"
      ],
      [
        "e",
        "very"
      ],
      [
        "d",
        "en"
      ],
      [
        "c",
        "es"
      ],
      [
        "e",
        "ar"
      ],
      [
        "st",
        "ill"
      ],
      [
        "be",
        "ing"
      ],
      [
        "j",
        "ust"
      ],
      [
        "m",
        "er"
      ],
      [
        "c",
        "all"
      ],
      [
        "a",
        "way"
      ],
      [
        "c",
        "ar"
      ],
      [
        "S",
        "ir"
      ],
      [
        "f",
        "ound"
      ],
      [
        "the",
        "e"
      ],
      [
        "m",
        "on"
      ],
      [
        "?",
        "\""
      ],
      [
        "t",
        "re"
      ],
      [
        "en",
        "ed"
      ],
      [
        "te",
        "ll"
      ],
      [
        "l",
        "ow"
      ],
      [
        "h",
        "or"
      ],
      [
        "b",
        "re"
      ],
      [
        "ig",
        "n"
      ],
      [
        "at",
        "t"
      ],
      [
        "f",
        "ull"
      ],
      [
        "a",
        "v"
      ],
      [
        "s",
        "m"
      ],
      [
        "o",
        "l"
      ],
      [
        "s",
        "ing"
      ],
      [
        "c",
        "our"
      ],
      [
        "n",
        "g"
      ],
      [
        "m",
        "or"
      ],
      [
        "S",
        "he"
      ],
      [
        "m",
        "ake"
      ],
      [
        "i",
        "th"
      ],
      [
        "ca",
        "use"
      ],
      [
        "he",
        "art"
      ],
      [
        "lo",
        "ve"
      ],
      [
        "sh",
        "i"
      ],
      [
        "Wh",
        "at"
      ],
      [
        "are",
        "d"
      ],
      [
        "s",
        "on"
      ],
      [
        "f",
        "er"
      ],
      [
        "The",
        "y"
      ],
      [
        "as",
        "e"
      ],
      [
        "ing",
        "s"
      ],
      [
        "C",
        "h"
      ],
      [
        "j",
        "o"
      ],
      [
        "fa",
        "ce"
      ],
      [
        "s",
        "up"
      ],
      [
        "t",
        "en"
      ],
      [
        "con",
        "t"
      ],
      [
        "g",
        "u"
      ],
      [
        "m",
        "ind"
      ],
      [
        "re",
        "p"
      ],
      [
        "at",
        "ter"
      ],
      [
        "m",
        "ar"
      ],
      [
        "ion",
        "s"
      ],
      [
        ".",
        "."
      ],
      [
        "f",
        "ri"
      ],
      [
        "th",
        "ose"
      ],
      [
        "c",
        "er"
      ],
      [
        "ti",
        "ll"
      ],
      [
        "f",
        "ar"
      ],
      [
        "see",
        "med"
      ],
      [
        "d",
        "on"
      ],
      [
        "u",
        "ght"
      ],
      [
        "to",
        "ok"
      ],
      [
        "N",
        "o"
      ],
      [
        "v",
        "i"
      ],
      [
        "with",
        "out"
      ],
      [
        "w",
        "a"
      ],
      [
        "li",
        "e"
      ],
      [
        "li",
        "fe"
      ],
      [
        "in",
        "ce"
      ],
      [
        "s",
        "i"
      ],
      [
        "w",
        "on"
      ],
      [
        "pla",
        "ce"
      ],
      [
        "man",
        "y"
      ],
      [
        "t",
        "ake"
      ],
      [
        "in",
        "ter"
      ],
      [
        "ou",
        "se"
      ],
      [
        "se",
        "t"
      ],
      [
        "i",
        "ly"
      ],
      [
        "ti",
        "c"
      ],
      [
        "ha",
        "l"
      ],
      [
        "ro",
        "om"
      ],
      [
        "g",
        "ra"
      ],
      [
        "n",
        "or"
      ],
      [
        "he",
        "ard"
      ],
      [
        "F",
        "or"
      ],
      [
        "c",
        "re"
      ],
      [
        "c",
        "y"
      ],
      [
        "i",
        "ld"
      ],
      [
        "m",
        "in"
      ],
      [
        "ct",
        "ed"
      ],
      [
        "look",
        "ed"
      ],
      [
        "a",
        "ir"
      ],
      [
        "fri",
        "end"
      ],
      [
        "T",
        "o"
      ],
      [
        "g",
        "ed"
      ],
      [
        "on",
        "ce"
      ],
      [
        "r",
        "ound"
      ],
      [
        "st",
        "and"
      ],
      [
        "w",
        "ar"
      ],
      [
        "p",
        "ut"
      ],
      [
        "d",
        "i"
      ],
      [
        "st",
        "e"
      ],
      [
        "t",
        "ing"
      ],
      [
        "ak",
        "ing"
      ],
      [
        "w",
        "ind"
      ],
      [
        "ou",
        "gh"
      ],
      [
        "a",
        "w"
      ],
      [
        "p",
        "ar"
      ],
      [
        "f",
        "i"
      ],
      [
        "T",
        "his"
      ],
      [
        "!",
        "\""
      ],
      [
        "A",
        "s"
      ],
      [
        "Th",
        "at"
      ],
      [
        "t",
        "s"
      ],
      [
        "n",
        "er"
      ],
      [
        "re",
        "st"
      ],
      [
        "ap",
        "pe"
      ],
      [
        "b",
        "ed"
      ],
      [
        "b",
        "od"
      ],
      [
        "ha",
        "pp"
      ],
      [
        "do",
        "or"
      ],
      [
        "p",
        "h"
      ],
      [
        "ent",
        "ly"
      ],
      [
        "go",
        "t"
      ],
      [
        "no",
        "thing"
      ],
      [
        "l",
        "ay"
      ],
      [
        "t",
        "ru"
      ],
      [
        "le",
        "ft"
      ],
      [
        "p",
        "ed"
      ],
      [
        "Wh",
        "en"
      ],
      [
        "k",
        "s"
      ],
      [
        "d",
        "ist"
      ],
      [
        "h",
        "ouse"
      ],
      [
        "un",
        "g"
      ],
      [
        "g",
        "i"
      ],
      [
        "n",
        "at"
      ],
      [
        "l",
        "ad"
      ],
      [
        "J",
        "o"
      ],
      [
        "e",
        "v"
      ],
      [
        "en",
        "g"
      ],
      [
        "so",
        "on"
      ],
      [
        "j",
        "e"
      ],
      [
        "ans",
        "w"
      ],
      [
        "i",
        "ther"
      ],
      [
        "w",
        "ant"
      ],
      [
        "m",
        "is"
      ],
      [
        "f",
        "ind"
      ],
      [
        "coun",
        "t"
      ],
      [
        "re",
        "n"
      ],
      [
        "s",
        "ur"
      ],
      [
        "ch",
        "ed"
      ],
      [
        "e",
        "ach"
      ],
      [
        "c",
        "c"
      ],
      [
        "c",
        "ha"
      ],
      [
        "A",
        "t"
      ],
      [
        "d",
        "ra"
      ],
      [
        "ie",
        "ld"
      ],
      [
        "bo",
        "th"
      ],
      [
        "in",
        "s"
      ],
      [
        "sa",
        "me"
      ],
      [
        "th",
        "ree"
      ],
      [
        "s",
        "il"
      ],
      [
        "st",
        "r"
      ],
      [
        "b",
        "u"
      ],
      [
        "sto",
        "od"
      ],
      [
        "shi",
        "p"
      ],
      [
        "l",
        "ing"
      ],
      [
        "con",
        "s"
      ],
      [
        "ne",
        "ar"
      ],
      [
        "sh",
        "o"
      ],
      [
        "S",
        "t"
      ],
      [
        "s",
        "le"
      ],
      [
        "s",
        "po"
      ],
      [
        "an",
        "other"
      ],
      [
        "my",
        "self"
      ],
      [
        "N",
        "ow"
      ],
      [
        "ish",
        "ed"
      ],
      [
        "pp",
        "ed"
      ],
      [
        "c",
        "ried"
      ],
      [
        "who",
        "m"
      ],
      [
        "for",
        "t"
      ],
      [
        "us",
        "ed"
      ],
      [
        "s",
        "at"
      ],
      [
        "st",
        "ran"
      ],
      [
        "K",
        "ing"
      ],
      [
        "se",
        "en"
      ],
      [
        "again",
        "st"
      ],
      [
        "fo",
        "llow"
      ],
      [
        "k",
        "ind"
      ],
      [
        "g",
        "ive"
      ],
      [
        "as",
        "ked"
      ],
      [
        "us",
        "h"
      ],
      [
        "m",
        "s"
      ],
      [
        "A",
        "ll"
      ],
      [
        "ret",
        "urn"
      ],
      [
        "st",
        "er"
      ],
      [
        "mo",
        "ment"
      ],
      [
        "s",
        "k"
      ],
      [
        "you",
        "ng"
      ],
      [
        "beg",
        "an"
      ],
      [
        "bod",
        "y"
      ],
      [
        "he",
        "l"
      ],
      [
        "read",
        "y"
      ],
      [
        "k",
        "new"
      ],
      [
        "g",
        "g"
      ],
      [
        "word",
        "s"
      ],
      [
        "t",
        "im"
      ],
      [
        "po",
        "ss"
      ],
      [
        "fa",
        "ir"
      ],
      [
        "ro",
        "ss"
      ],
      [
        "I",
        "f"
      ],
      [
        "t",
        "al"
      ],
      [
        "w",
        "r"
      ],
      [
        "l",
        "es"
      ],
      [
        "s",
        "ou"
      ],
      [
        "b",
        "la"
      ],
      [
        "as",
        "ter"
      ],
      [
        "na",
        "me"
      ],
      [
        "e",
        "f"
      ],
      [
        "he",
        "ar"
      ],
      [
        "b",
        "ra"
      ],
      [
        "st",
        "re"
      ],
      [
        "c",
        "are"
      ],
      [
        "hi",
        "gh"
      ],
      [
        "H",
        "is"
      ],
      [
        "s",
        "it"
      ],
      [
        "wor",
        "ld"
      ],
      [
        "f",
        "all"
      ],
      [
        "wat",
        "er"
      ],
      [
        "com",
        "p"
      ],
      [
        "M",
        "y"
      ],
      [
        "d",
        "ark"
      ],
      [
        "fe",
        "el"
      ],
      [
        "A",
        "r"
      ],
      [
        "s",
        "we"
      ],
      [
        "su",
        "re"
      ],
      [
        "m",
        "a"
      ],
      [
        "th",
        "us"
      ],
      [
        "is",
        "ed"
      ],
      [
        "thing",
        "s"
      ],
      [
        "m",
        "ain"
      ],
      [
        "ple",
        "as"
      ],
      [
        "hand",
        "s"
      ],
      [
        "en",
        "s"
      ],
      [
        "as",
        "h"
      ],
      [
        "be",
        "cause"
      ],
      [
        "p",
        "i"
      ],
      [
        "ad",
        "d"
      ],
      [
        "b",
        "lo"
      ],
      [
        "te",
        "m"
      ],
      [
        "p",
        "ort"
      ],
      [
        "l",
        "s"
      ],
      [
        "f",
        "f"
      ],
      [
        "to",
        "ld"
      ],
      [
        "r",
        "un"
      ],
      [
        "de",
        "ath"
      ],
      [
        "hal",
        "f"
      ],
      [
        "cour",
        "se"
      ],
      [
        "se",
        "a"
      ],
      [
        "de",
        "ed"
      ],
      [
        "ho",
        "ld"
      ],
      [
        "W",
        "ith"
      ],
      [
        "sh",
        "ow"
      ],
      [
        "fa",
        "ther"
      ],
      [
        "pl",
        "ain"
      ],
      [
        "d",
        "one"
      ],
      [
        "d",
        "a"
      ],
      [
        "g",
        "ave"
      ],
      [
        "vo",
        "ice"
      ],
      [
        "in",
        "ed"
      ],
      [
        "to",
        "ward"
      ],
      [
        "on",
        "s"
      ],
      [
        "li",
        "ed"
      ],
      [
        "i",
        "ble"
      ],
      [
        "turn",
        "ed"
      ],
      [
        "some",
        "thing"
      ],
      [
        "cer",
        "tain"
      ],
      [
        "b",
        "it"
      ],
      [
        "way",
        "s"
      ],
      [
        "z",
        "e"
      ],
      [
        "con",
        "d"
      ],
      [
        "op",
        "le"
      ],
      [
        "ad",
        "v"
      ],
      [
        "so",
        "l"
      ],
      [
        "c",
        "u"
      ],
      [
        "d",
        "re"
      ],
      [
        "h",
        "our"
      ],
      [
        "tim",
        "es"
      ],
      [
        "d",
        "ou"
      ],
      [
        "i",
        "le"
      ],
      [
        "ch",
        "o"
      ],
      [
        "b",
        "es"
      ],
      [
        "g",
        "en"
      ],
      [
        "p",
        "ur"
      ],
      [
        "s",
        "un"
      ],
      [
        "i",
        "an"
      ],
      [
        "p",
        "ri"
      ],
      [
        "for",
        "m"
      ],
      [
        "P",
        "e"
      ],
      [
        "in",
        "st"
      ],
      [
        "fe",
        "ar"
      ],
      [
        "g",
        "a"
      ],
      [
        "a",
        "ven"
      ],
      [
        "F",
        "o"
      ],
      [
        "t",
        "a"
      ],
      [
        "su",
        "b"
      ],
      [
        "h",
        "u"
      ],
      [
        "en",
[...]
